<pad>	0
<unk>	0
<start>	0
<end>	0
▁the	-2.95525
,	-3.07462
.	-3.31658
▁of	-3.44896
▁and	-3.51944
▁sent	-3.85692
▁to	-3.94584
▁in	-3.99582
▁	-4.22973
▁for	-4.43893
▁a	-4.45702
s	-4.6064
-	-4.70884
▁on	-4.89407
▁by	-5.1112
▁india	-5.16956
▁is	-5.22134
▁with	-5.22555
▁minister	-5.24026
'	-5.42846
▁from	-5.49096
▁this	-5.52337
▁as	-5.58462
▁will	-5.60192
▁has	-5.61835
▁at	-5.63907
ing	-5.65274
▁shri	-5.66272
▁that	-5.7127
▁be	-5.78999
▁also	-5.82397
▁was	-5.86714
▁government	-5.94761
▁are	-5.99416
▁state	-6.00043
▁indian	-6.0249
▁he	-6.08492
▁development	-6.10711
▁national	-6.15294
▁been	-6.16041
▁under	-6.18461
▁an	-6.20984
▁prime	-6.2377
▁have	-6.24017
▁new	-6.38286
th	-6.39354
▁their	-6.39721
ed	-6.41376
▁union	-6.41382
▁s	-6.43892
▁said	-6.47201
▁all	-6.47925
▁crore	-6.48227
▁its	-6.50097
▁it	-6.50648
▁through	-6.51435
▁which	-6.52385
▁including	-6.536
▁president	-6.63734
▁various	-6.68512
▁scheme	-6.72445
▁dr	-6.72606
▁modi	-6.75151
▁today	-6.76588
▁information	-6.78549
▁inr	-6.79269
▁during	-6.79341
▁these	-6.80038
▁over	-6.8099
▁singh	-6.84451
▁public	-6.84772
▁country	-6.84889
▁other	-6.87107
▁sector	-6.8712
▁his	-6.87793
▁were	-6.88896
▁between	-6.89206
▁"	-6.95973
▁delhi	-6.96104
▁sabha	-6.97096
▁states	-6.97916
▁health	-6.98031
▁central	-6.98197
▁technology	-6.98269
▁meeting	-6.98859
▁up	-6.99113
▁year	-6.99247
▁narendra	-7.02888
▁two	-7.06755
▁energy	-7.10027
▁project	-7.10821
▁like	-7.134
▁international	-7.13837
▁further	-7.15769
▁day	-7.16279
▁research	-7.17002
▁years	-7.17344
▁projects	-7.20118
▁or	-7.20935
▁such	-7.21471
▁initiatives	-7.21783
▁per	-7.21824
▁services	-7.22466
▁being	-7.22879
"	-7.23465
▁i	-7.23726
▁department	-7.24108
▁training	-7.24282
▁more	-7.24769
▁one	-7.25381
▁lakh	-7.26077
▁people	-7.26296
▁across	-7.26438
▁water	-7.26783
▁reply	-7.27112
▁secretary	-7.27277
▁not	-7.27878
▁security	-7.28599
▁infrastructure	-7.28643
▁education	-7.28723
▁management	-7.29062
▁women	-7.29093
▁support	-7.29343
▁global	-7.29892
▁event	-7.3001
▁cooperation	-7.31217
▁first	-7.31272
▁areas	-7.32721
▁industry	-7.32855
▁system	-7.33293
▁world	-7.33473
▁written	-7.34086
▁growth	-7.34265
▁about	-7.34462
▁provided	-7.35525
d	-7.36347
▁act	-7.3651
▁countries	-7.36759
▁pradesh	-7.36929
▁rs	-7.37367
▁mission	-7.37608
▁ministry	-7.38824
▁our	-7.39069
▁defence	-7.39571
▁given	-7.39936
▁initiative	-7.40665
▁highlighted	-7.4075
▁financial	-7.41145
▁e	-7.41639
▁policy	-7.4391
▁held	-7.4396
▁economic	-7.44282
e	-7.44357
▁would	-7.44639
▁include	-7.44891
▁both	-7.45586
▁key	-7.45871
▁who	-7.46928
▁power	-7.48041
▁out	-7.48349
▁service	-7.48653
▁high	-7.50705
▁aims	-7.50871
▁production	-7.51291
▁need	-7.51927
a	-7.52029
▁efforts	-7.52383
▁chief	-7.52769
▁while	-7.52881
▁total	-7.53745
▁time	-7.53813
▁lok	-7.53983
▁provide	-7.55378
▁importance	-7.5568
▁pm	-7.56309
▁bharat	-7.56579
▁air	-7.57043
▁significant	-7.5752
▁made	-7.57851
▁can	-7.58225
▁role	-7.58439
▁visit	-7.58959
▁programme	-7.59132
▁no	-7.59143
▁food	-7.59769
▁1	-7.60131
▁address	-7.60243
▁conference	-7.60303
▁may	-7.60472
▁three	-7.62278
▁farmers	-7.63209
▁committee	-7.63362
▁based	-7.6339
st	-7.63454
▁social	-7.63801
▁implementation	-7.6449
▁work	-7.65971
▁trade	-7.66323
▁emphasized	-7.68203
▁progress	-7.68474
▁digital	-7.68635
▁improve	-7.68636
▁capacity	-7.68813
▁etc	-7.69322
▁special	-7.69759
▁well	-7.69945
▁5	-7.69981
▁affairs	-7.69983
▁centre	-7.70086
▁into	-7.70112
▁2	-7.70584
▁general	-7.70766
▁part	-7.70867
▁office	-7.70904
▁increase	-7.71926
▁last	-7.71944
▁rajya	-7.72416
▁launched	-7.72608
▁welfare	-7.72622
▁data	-7.72792
▁students	-7.73054
▁region	-7.73261
▁commitment	-7.73266
▁schemes	-7.73786
▁release	-7.73808
▁coal	-7.74021
▁investment	-7.75432
▁cabinet	-7.75628
▁agriculture	-7.76115
▁quality	-7.76437
▁issues	-7.76651
▁10	-7.76656
▁them	-7.77052
▁there	-7.77537
▁railway	-7.77824
▁than	-7.78292
▁approved	-7.78368
▁towards	-7.78812
▁building	-7.78831
▁3	-7.78854
▁level	-7.78955
▁taken	-7.79434
▁collaboration	-7.7951
▁among	-7.80125
▁program	-7.81448
▁youth	-7.82063
▁occasion	-7.82271
▁mou	-7.82576
▁tourism	-7.82636
▁we	-7.83204
▁bank	-7.83356
▁activities	-7.83735
▁vice	-7.83769
▁rural	-7.83809
▁included	-7.84196
▁cost	-7.84591
▁commission	-7.85312
▁after	-7.8616
▁several	-7.86781
▁institute	-7.8729
▁march	-7.87535
▁ensure	-7.87731
▁non	-7.87813
▁officers	-7.88005
▁number	-7.8815
n	-7.8829
▁railways	-7.88444
▁use	-7.88614
▁institutions	-7.88642
▁future	-7.88878
▁employment	-7.89234
▁change	-7.89277
▁april	-7.89401
▁officials	-7.8965
▁science	-7.89957
▁make	-7.90331
▁sustainable	-7.91081
▁sports	-7.91108
▁providing	-7.91141
▁promote	-7.91166
▁home	-7.91602
▁joint	-7.91607
▁million	-7.92162
▁they	-7.92208
▁any	-7.92262
▁climate	-7.92324
▁-	-7.92758
▁assistance	-7.93577
▁participation	-7.9363
▁increased	-7.93654
▁major	-7.93852
▁2016	-7.9465
ly	-7.94671
▁nation	-7.95051
▁innovation	-7.95089
▁safety	-7.95125
▁process	-7.95346
▁along	-7.96477
▁had	-7.96719
▁available	-7.97022
▁within	-7.97278
▁medical	-7.9731
▁north	-7.9733
▁plan	-7.97562
▁urban	-7.97709
i	-7.97851
▁road	-7.98073
er	-7.98459
▁skill	-7.98878
▁due	-7.99031
▁awareness	-7.9921
▁press	-7.99211
▁period	-7.99315
▁finance	-7.99637
▁senior	-7.99798
▁potential	-8.00766
▁present	-8.01203
▁tax	-8.01277
▁jitendra	-8.01479
▁only	-8.0151
▁construction	-8.01591
▁business	-8.01808
▁details	-8.02289
▁kumar	-8.0257
▁january	-8.02973
▁products	-8.03006
▁director	-8.03526
▁focus	-8.03833
m	-8.03858
▁so	-8.04294
▁access	-8.04395
▁additional	-8.04496
▁children	-8.04641
▁action	-8.0469
▁us	-8.04701
▁but	-8.04807
▁question	-8.04808
▁report	-8.05386
▁15	-8.05678
▁force	-8.05805
▁agreement	-8.05821
▁4	-8.06182
▁environment	-8.06185
▁campaign	-8.06271
▁measures	-8.06299
▁best	-8.06573
▁october	-8.06647
▁should	-8.06749
▁promoting	-8.07016
▁challenges	-8.07179
▁each	-8.07205
▁members	-8.0743
▁cultural	-8.07604
▁help	-8.07766
▁existing	-8.08379
▁companies	-8.08411
▁board	-8.0855
▁land	-8.08939
▁life	-8.09151
▁foreign	-8.09284
▁army	-8.09512
▁mr	-8.09777
▁space	-8.09819
▁working	-8.0996
▁conducted	-8.10209
▁council	-8.10233
▁expressed	-8.11001
▁portal	-8.11043
▁december	-8.11722
▁group	-8.11738
▁governments	-8.11816
▁announced	-8.12377
▁fund	-8.12377
▁budget	-8.12597
▁mantri	-8.12599
▁signed	-8.1302
▁bilateral	-8.13132
▁pradhan	-8.13583
▁aim	-8.1367
▁technologies	-8.13746
▁'	-8.14253
▁developed	-8.14295
▁particularly	-8.1482
▁yojana	-8.15298
▁enhance	-8.15579
▁private	-8.15715
▁set	-8.1593
▁smt	-8.16047
▁district	-8.16117
▁post	-8.16199
▁systems	-8.16387
▁since	-8.16389
▁against	-8.16557
▁community	-8.16719
▁facilities	-8.17009
▁limited	-8.17192
▁chair	-8.17193
▁opportunities	-8.17521
▁five	-8.17659
▁g	-8.17681
▁personnel	-8.18597
▁related	-8.18806
▁local	-8.19232
▁12	-8.1927
▁market	-8.19344
▁received	-8.19387
▁2023	-8.1939
▁resources	-8.19811
▁practices	-8.19933
▁stakeholders	-8.19956
▁manufacturing	-8.20545
2	-8.20587
▁order	-8.20774
▁online	-8.2082
▁organized	-8.20839
▁issued	-8.21325
▁20	-8.21401
▁stated	-8.21589
▁attended	-8.21809
▁100	-8.22006
▁navy	-8.2215
▁citizens	-8.22371
▁improving	-8.22471
▁area	-8.22517
▁strengthening	-8.22558
▁response	-8.22983
▁following	-8.23354
▁long	-8.23409
▁culture	-8.23771
▁control	-8.23865
▁she	-8.24132
▁four	-8.24315
▁launch	-8.24376
g	-8.24425
▁vision	-8.24791
▁regional	-8.25054
▁added	-8.25191
▁authority	-8.25441
▁2016.	-8.25523
in	-8.25674
▁field	-8.26064
▁awards	-8.26184
▁addressing	-8.2624
▁6	-8.26601
▁june	-8.26706
▁2015	-8.27145
▁operations	-8.27254
▁take	-8.27667
▁partnership	-8.27672
▁sectors	-8.27804
▁inaugurated	-8.27924
▁8	-8.28149
▁emphasiz	-8.28259
▁platform	-8.28298
▁30	-8.28329
▁yoga	-8.28525
▁review	-8.28579
c	-8.28936
▁25	-8.29229
▁m	-8.29346
▁monitoring	-8.2951
▁november	-8.29572
▁guidelines	-8.29634
▁justice	-8.29727
▁where	-8.3006
▁2018	-8.30096
▁february	-8.3012
▁ii	-8.30128
▁technical	-8.30235
▁staff	-8.30244
▁highlights	-8.30285
▁here	-8.31106
▁standards	-8.31697
r	-8.31965
▁ministries	-8.31965
▁highlighting	-8.32077
▁agricultural	-8.32238
▁impact	-8.32527
▁b	-8.3277
▁making	-8.32772
▁includes	-8.32879
▁domestic	-8.33248
▁benefit	-8.3329
▁provides	-8.33411
▁self	-8.33427
▁free	-8.33442
▁july	-8.3355
▁team	-8.33738
▁gas	-8.33787
al	-8.34059
▁university	-8.34223
▁steel	-8.34342
▁society	-8.34374
▁port	-8.34583
▁september	-8.34601
▁police	-8.34867
▁transport	-8.35025
▁success	-8.35251
▁message	-8.35353
▁ms	-8.35416
▁different	-8.35462
▁24	-8.35643
▁create	-8.35727
▁great	-8.35796
▁price	-8.35803
▁income	-8.35936
▁expected	-8.36244
▁interest	-8.36442
▁cases	-8.36457
▁shall	-8.36892
▁important	-8.36918
▁approximately	-8.37031
▁supply	-8.37193
▁already	-8.3747
▁promotion	-8.37522
▁civil	-8.3766
▁now	-8.3778
▁using	-8.38044
▁healthcare	-8.38314
▁session	-8.38497
▁renewable	-8.38654
t	-8.38787
y	-8.38911
▁those	-8.38975
▁economy	-8.38998
▁media	-8.39109
▁programs	-8.39218
▁every	-8.39264
▁implemented	-8.39395
▁discussions	-8.3949
▁maritime	-8.39656
day	-8.39895
▁protection	-8.39911
▁tribal	-8.40053
▁shared	-8.40166
▁document	-8.40241
▁7	-8.40336
▁focused	-8.40486
▁school	-8.40615
▁operational	-8.40716
▁naval	-8.40719
▁higher	-8.41102
▁capital	-8.41222
▁9	-8.41312
▁gujarat	-8.41339
▁strengthen	-8.41421
▁empowerment	-8.41428
▁charge	-8.4163
▁family	-8.41731
▁understanding	-8.41849
▁foundation	-8.41928
▁member	-8.42067
▁exercise	-8.42085
▁annual	-8.42134
▁districts	-8.42162
▁some	-8.4231
▁persons	-8.42311
▁governance	-8.42497
▁reduce	-8.4281
▁released	-8.43033
▁solar	-8.43182
▁focusing	-8.43184
▁c	-8.43273
▁forces	-8.43454
▁agencies	-8.43501
▁representatives	-8.43917
▁upon	-8.44144
▁performance	-8.44219
▁disaster	-8.44596
▁section	-8.44657
▁natural	-8.44758
▁exchange	-8.44794
▁current	-8.44911
▁approach	-8.44939
▁effective	-8.4505
▁industrial	-8.45059
▁cities	-8.45396
▁integrated	-8.46068
▁ministers	-8.46112
▁rules	-8.46202
▁un	-8.46297
▁connectivity	-8.4651
▁forest	-8.46552
▁open	-8.46614
▁km	-8.46665
▁human	-8.47098
▁rate	-8.4732
▁eastern	-8.47369
▁efficiency	-8.47574
▁developing	-8.47773
nd	-8.47815
▁v	-8.47854
▁waste	-8.47899
▁aimed	-8.48069
▁discussed	-8.48119
▁workshop	-8.48211
▁re	-8.48226
▁addressed	-8.48354
▁benefits	-8.48371
▁previous	-8.4845
▁second	-8.48533
▁inter	-8.48582
▁boost	-8.48639
▁50	-8.48695
▁funds	-8.48856
k	-8.48924
▁p	-8.49052
20	-8.49173
▁around	-8.49176
▁14	-8.49224
▁days	-8.50073
p	-8.50089
▁improved	-8.50249
▁share	-8.50457
▁green	-8.50694
based	-8.51093
▁overall	-8.51182
▁child	-8.51421
1	-8.51692
▁workers	-8.51776
▁august	-8.51816
▁11	-8.5195
▁place	-8.52029
▁knowledge	-8.52142
▁same	-8.52245
▁next	-8.52528
▁heritage	-8.52567
▁crores	-8.52677
▁date	-8.52683
▁good	-8.52711
▁corporation	-8.52758
▁south	-8.52768
▁chairman	-8.53159
▁ceremony	-8.53265
▁successful	-8.53455
▁units	-8.53486
▁phase	-8.53535
▁nations	-8.53575
▁amount	-8.53619
▁18	-8.53662
▁distribution	-8.53755
▁plans	-8.54088
▁speech	-8.54099
▁co	-8.54368
▁meet	-8.54768
▁established	-8.54872
▁ensuring	-8.54928
▁industries	-8.55162
▁river	-8.55337
▁grievances	-8.55346
▁tonnes	-8.55354
▁framework	-8.55396
▁led	-8.55422
▁small	-8.55503
▁award	-8.55634
▁large	-8.55845
▁2024	-8.55948
▁16	-8.56022
▁uttar	-8.56194
▁via	-8.56265
▁better	-8.56521
▁independent	-8.5669
▁generation	-8.5673
▁ayush	-8.56732
▁mumbai	-8.56761
▁k	-8.57234
▁jammu	-8.57274
▁many	-8.5745
▁procurement	-8.57693
▁2022	-8.57729
▁oil	-8.57815
▁organizations	-8.58135
▁regarding	-8.58207
▁value	-8.58394
▁scheduled	-8.58436
▁facilitate	-8.59088
▁participants	-8.59133
▁2018.	-8.59266
▁addition	-8.59308
▁maharashtra	-8.59452
▁her	-8.59644
▁increasing	-8.59898
▁conservation	-8.60036
▁summit	-8.60245
▁mobile	-8.60336
▁met	-8.60351
▁strategic	-8.60506
▁strong	-8.60772
▁network	-8.61077
▁clean	-8.61355
▁approval	-8.62142
▁basis	-8.62203
▁before	-8.6306
▁employees	-8.63087
▁care	-8.63237
▁survey	-8.63296
▁line	-8.63416
▁model	-8.63504
▁specific	-8.6398
▁law	-8.63986
▁funding	-8.64073
▁stressed	-8.64417
▁contribution	-8.64471
▁court	-8.64617
▁kashmir	-8.64783
▁result	-8.64912
▁secretariat	-8.65081
▁informed	-8.65111
▁export	-8.65128
▁parliament	-8.65215
▁provisions	-8.65385
▁banks	-8.65631
▁leaders	-8.65672
▁month	-8.65719
▁traditional	-8.65735
▁21	-8.65981
▁stations	-8.66094
▁leadership	-8.6629
l	-8.66726
▁credit	-8.66756
▁resource	-8.67093
▁exhibition	-8.67095
▁bill	-8.67123
▁contributions	-8.6719
▁however	-8.67331
▁urged	-8.67562
▁highways	-8.67625
▁13	-8.67718
▁gandhi	-8.68149
▁website	-8.68332
▁setting	-8.6859
▁needs	-8.68682
▁aircraft	-8.68758
▁iii	-8.68808
▁way	-8.6884
▁creating	-8.68883
▁villages	-8.69068
▁currently	-8.69103
▁ganga	-8.69404
▁31	-8.69471
▁implementing	-8.6951
▁achieve	-8.6957
▁direct	-8.69647
▁company	-8.69672
▁called	-8.69703
▁target	-8.6983
▁enhanc	-8.70034
▁centres	-8.70048
▁comprehensive	-8.70249
▁presented	-8.70336
▁border	-8.70401
▁proposed	-8.70481
te	-8.70576
▁ongoing	-8.70633
▁tamil	-8.70683
b	-8.70795
▁environmental	-8.70797
▁rajasthan	-8.70866
▁establishment	-8.70933
▁case	-8.71066
▁young	-8.71139
▁reforms	-8.71157
▁2016,	-8.71167
to	-8.71263
▁goyal	-8.71283
▁relations	-8.71391
▁scientific	-8.71414
▁goal	-8.71558
▁officer	-8.71652
▁hon	-8.71704
▁communication	-8.71908
▁delegation	-8.72013
▁six	-8.7207
▁identified	-8.72157
▁ltd	-8.72254
▁achievements	-8.7249
▁common	-8.72588
▁compar	-8.72752
▁memorandum	-8.72818
▁very	-8.72905
▁become	-8.72937
▁develop	-8.73092
▁rail	-8.73212
▁facility	-8.73639
▁sub	-8.73664
▁consumer	-8.73702
▁east	-8.73927
▁assam	-8.7403
▁used	-8.74316
▁billion	-8.74322
▁demand	-8.74561
▁plants	-8.74584
▁speaking	-8.74624
▁andhra	-8.74677
▁visited	-8.75358
▁sharing	-8.75382
▁commerce	-8.75396
▁required	-8.75416
▁processing	-8.7544
▁crucial	-8.75442
▁forward	-8.75476
▁most	-8.755
▁far	-8.75551
▁17	-8.75555
3	-8.75568
▁steps	-8.75617
▁my	-8.75883
▁republic	-8.76176
▁2023.	-8.76177
▁account	-8.76207
▁schools	-8.76405
▁taking	-8.76483
▁events	-8.77116
▁extended	-8.77154
▁recent	-8.77162
▁equipment	-8.77297
▁mukherjee	-8.77361
▁completed	-8.77377
▁smart	-8.7765
▁mt	-8.77769
▁naidu	-8.77899
▁experience	-8.78003
▁programmes	-8.78056
▁revenue	-8.78132
▁west	-8.78133
▁cleanliness	-8.78155
▁multi	-8.78327
▁notified	-8.78407
▁ecosystem	-8.78415
▁planning	-8.78489
▁festival	-8.78517
▁months	-8.78566
▁together	-8.78566
▁stock	-8.78756
▁city	-8.78951
▁payment	-8.78977
rd	-8.79257
▁experts	-8.79449
▁achieving	-8.79535
▁aviation	-8.79655
▁madhya	-8.79909
▁treatment	-8.79913
▁innovative	-8.80003
▁anniversary	-8.80021
▁creation	-8.80055
▁leading	-8.80124
▁beneficiaries	-8.80213
▁population	-8.80377
▁rajnath	-8.80461
▁applications	-8.80475
▁pension	-8.80512
▁solutions	-8.80689
▁decision	-8.80755
▁issue	-8.80779
▁bring	-8.80978
▁ram	-8.81317
▁plant	-8.81426
▁till	-8.81798
▁labour	-8.81921
▁commercial	-8.82011
▁2025	-8.82094
▁emphasize	-8.82308
▁meetings	-8.82512
▁status	-8.82914
▁cr	-8.83016
▁if	-8.83302
▁skills	-8.83433
▁participated	-8.8394
▁r	-8.83994
▁transfer	-8.84179
▁odisha	-8.84468
▁past	-8.84769
▁karnataka	-8.84819
▁fy	-8.84929
▁mentioned	-8.85049
▁operation	-8.85289
▁competition	-8.85388
▁insurance	-8.85816
▁reduction	-8.85977
▁above	-8.86463
▁mines	-8.86525
▁involved	-8.86529
4	-8.86644
▁learning	-8.86717
▁positive	-8.86795
▁design	-8.87115
f	-8.87179
▁prices	-8.87387
▁former	-8.87444
▁nadu	-8.87553
▁critical	-8.8779
▁lives	-8.87805
▁niti	-8.87812
▁2015.	-8.87844
▁19	-8.87944
▁hours	-8.88031
▁22	-8.88267
o	-8.88303
▁military	-8.88305
▁reducing	-8.8847
▁relief	-8.88708
▁pre	-8.88772
▁study	-8.89104
▁availability	-8.8912
▁application	-8.89163
▁departments	-8.89294
▁praised	-8.89391
▁earlier	-8.89401
▁when	-8.89452
▁kerala	-8.89495
▁startups	-8.89594
▁swachh	-8.89684
▁23	-8.89744
▁station	-8.90003
▁conditions	-8.90039
▁train	-8.901
▁opportunity	-8.90142
▁participate	-8.90266
▁continue	-8.90357
▁exports	-8.90383
▁advanced	-8.90442
▁legal	-8.90548
▁come	-8.9079
▁enterprises	-8.91123
▁undertaken	-8.91145
▁delivery	-8.91152
▁auction	-8.91248
▁sri	-8.91401
▁sh	-8.91473
▁bihar	-8.91523
▁communities	-8.91938
▁inclusive	-8.92118
▁educational	-8.92287
▁reviewed	-8.92294
the	-8.92694
▁view	-8.92781
▁pollution	-8.92868
up	-8.92881
▁shipping	-8.9309
▁airport	-8.93263
▁excellence	-8.9329
▁technological	-8.93305
▁t	-8.93341
▁gold	-8.93382
entrepreneurship	-8.93647
▁movement	-8.93706
▁must	-8.93776
year	-8.93792
▁cent	-8.93925
▁aayog	-8.93962
▁modern	-8.9397
▁levels	-8.93984
▁2017	-8.94046
▁registration	-8.94122
▁respect	-8.94257
▁continued	-8.94274
▁age	-8.94285
▁2014	-8.94339
▁top	-8.94792
▁significantly	-8.95129
▁end	-8.95217
▁ble	-8.95231
▁concluded	-8.95445
▁individuals	-8.9552
▁peace	-8.95592
▁28	-8.95671
▁registered	-8.95809
▁dedicated	-8.95836
▁haryana	-8.95942
▁eligible	-8.96383
▁statesuts	-8.96704
▁26	-8.96945
▁conduct	-8.9696
▁armed	-8.96991
▁am	-8.97079
▁completion	-8.97086
▁sanitation	-8.97227
▁recommendations	-8.97242
▁administration	-8.97248
▁transparency	-8.97381
▁fostering	-8.97473
▁contribute	-8.97491
▁ties	-8.97523
▁sharma	-8.97588
▁growing	-8.9767
▁enhanced	-8.97739
▁ports	-8.98
▁objective	-8.98008
▁families	-8.98187
▁medicine	-8.98361
▁bengal	-8.98403
▁storage	-8.98449
▁2018,	-8.98618
,"	-8.98675
▁provision	-8.98716
▁housing	-8.98734
▁indigenous	-8.9882
▁planned	-8.99029
▁participating	-8.9916
▁foster	-8.99354
▁detailed	-8.99357
▁village	-8.99431
▁pranab	-8.99466
▁d	-8.99678
▁bangladesh	-8.9974
▁get	-8.99752
▁groups	-8.99819
▁mutual	-8.99846
▁candidates	-8.99964
▁start	-9.00279
▁ai	-9.00284
level	-9.00343
on	-9.00696
▁mining	-9.00919
▁organization	-9.01013
▁vehicles	-9.01017
▁goods	-9.01268
▁establishing	-9.01273
▁regulations	-9.01316
▁rights	-9.01375
▁theme	-9.0146
▁unique	-9.01504
▁record	-9.01798
▁coastal	-9.01881
▁assessment	-9.01917
▁corporate	-9.01947
▁narendramodi	-9.01966
▁reach	-9.01989
india	-9.02578
▁low	-9.02758
▁medal	-9.02823
▁showcasing	-9.02865
▁subject	-9.0289
▁bodies	-9.02941
▁j	-9.03018
▁full	-9.03055
▁reports	-9.03252
▁expansion	-9.03255
5	-9.0334
▁category	-9.03356
▁association	-9.03387
▁united	-9.034
▁art	-9.034
▁film	-9.03448
▁universities	-9.03481
▁telecom	-9.03515
▁trains	-9.03609
▁presence	-9.0362
▁marketing	-9.03734
▁situation	-9.03805
▁institutes	-9.03914
▁expenditure	-9.03994
▁play	-9.04032
▁noted	-9.04061
▁paid	-9.04195
▁nationwide	-9.04207
▁iv	-9.04233
▁raksha	-9.04312
▁traffic	-9.04321
▁responsibility	-9.04368
▁committed	-9.04641
▁ease	-9.04996
▁games	-9.05134
▁having	-9.05134
▁terms	-9.05159
▁enable	-9.05217
▁estimated	-9.05358
▁accounts	-9.05423
▁encourage	-9.05488
▁app	-9.05519
▁maintenance	-9.05569
▁entire	-9.0558
▁congratulat	-9.05624
▁third	-9.05851
▁pay	-9.05919
▁x	-9.05973
▁done	-9.06098
▁discuss	-9.0619
▁respective	-9.06289
▁achieved	-9.06312
▁animal	-9.06412
▁unit	-9.06425
▁ex	-9.06479
▁h	-9.06507
▁affordable	-9.06666
▁2023,	-9.06697
▁csir	-9.06796
▁mechanism	-9.06833
▁works	-9.06991
▁fisheries	-9.06992
▁rd	-9.07224
▁centers	-9.0726
▁features	-9.07304
▁range	-9.07389
▁followed	-9.07627
▁efficient	-9.07709
7	-9.07723
▁sessions	-9.07738
▁concerns	-9.07815
▁statement	-9.0793
h	-9.08034
▁1,	-9.0821
▁regular	-9.08301
▁necessary	-9.08332
▁amendment	-9.08365
▁engineering	-9.08411
▁drive	-9.08478
▁largest	-9.08494
▁covered	-9.08623
▁goals	-9.08752
▁cover	-9.08766
▁birth	-9.08823
▁interact	-9.08829
▁others	-9.09137
▁college	-9.09161
▁history	-9.09184
▁anti	-9.0953
▁travel	-9.09619
▁especially	-9.0969
▁jan	-9.09759
es	-9.09824
▁29	-9.10041
▁regulatory	-9.10059
▁step	-9.10135
▁policies	-9.10204
▁single	-9.10217
▁capabilities	-9.10261
▁loan	-9.10343
▁gram	-9.1048
▁engagement	-9.10553
▁27	-9.10637
▁2024,	-9.10668
▁submitted	-9.10673
▁supporting	-9.10855
▁form	-9.10867
▁allocation	-9.10885
▁40	-9.10914
▁priority	-9.10925
▁lead	-9.10937
▁coverage	-9.11013
▁friendly	-9.11013
▁risk	-9.11085
▁shah	-9.11428
▁adoption	-9.11474
▁75	-9.11502
▁testing	-9.1154
v	-9.11637
▁respectively	-9.11799
▁sale	-9.11906
▁constitution	-9.12173
▁logistics	-9.1221
▁crop	-9.12248
▁greetings	-9.12293
▁without	-9.12458
▁book	-9.12523
▁sea	-9.12528
▁improvement	-9.12675
▁aspects	-9.12704
▁petroleum	-9.12818
▁decided	-9.12831
▁give	-9.12962
▁china	-9.13094
▁election	-9.13298
u	-9.13413
▁organised	-9.13425
▁besides	-9.13428
▁your	-9.13845
▁poor	-9.13913
▁academic	-9.13932
▁sanctioned	-9.14087
▁do	-9.14173
▁proposal	-9.14215
▁could	-9.14235
▁week	-9.14312
▁function	-9.14351
▁ship	-9.14368
▁concerned	-9.14445
▁establish	-9.14809
▁improvements	-9.14825
▁awarded	-9.15008
▁successfully	-9.15079
▁express	-9.15213
▁citizen	-9.15227
▁class	-9.15555
▁organisation	-9.15607
▁revised	-9.15703
▁msme	-9.15731
▁reserve	-9.15833
▁2015-16	-9.15878
▁drugs	-9.16009
▁affected	-9.16225
▁offices	-9.16255
▁call	-9.16257
▁integration	-9.16306
▁discussion	-9.16576
▁micro	-9.16611
▁off	-9.16628
▁purpose	-9.16702
▁pensions	-9.16726
▁command	-9.16878
▁prof	-9.17023
▁administrative	-9.17325
▁agency	-9.17357
▁asia	-9.17435
▁entrepreneurs	-9.17578
▁even	-9.17588
▁real	-9.17725
▁early	-9.17877
▁list	-9.17918
▁minimum	-9.17929
▁short	-9.18007
▁agreed	-9.18012
▁another	-9.18075
▁bhavan	-9.18077
▁consultation	-9.18143
▁average	-9.18146
▁2022.	-9.18168
▁electronic	-9.18536
▁ground	-9.18687
▁atomic	-9.18692
▁physical	-9.18899
▁build	-9.18948
▁dated	-9.1931
▁net	-9.19471
▁down	-9.19555
▁territories	-9.19562
▁scientists	-9.19591
▁weather	-9.19605
▁celebrations	-9.20167
▁passengers	-9.20289
▁roads	-9.20426
▁strategy	-9.20444
▁course	-9.20513
▁hospital	-9.20556
▁bio	-9.20589
▁rashtrapati	-9.20593
▁dignitaries	-9.20635
▁mos	-9.20799
▁fair	-9.20799
▁passenger	-9.20897
▁authorities	-9.21017
▁drug	-9.2111
▁active	-9.21111
▁startup	-9.21395
▁designed	-9.21523
▁disabilities	-9.21529
▁prevention	-9.21532
▁you	-9.21539
▁term	-9.21595
▁60	-9.21631
▁coast	-9.21814
▁trust	-9.21823
▁changes	-9.21905
▁inclusion	-9.21926
▁2015,	-9.22118
▁requirements	-9.22129
▁medium	-9.22204
▁reported	-9.22209
▁highest	-9.22213
▁addresses	-9.22228
▁punjab	-9.22537
▁relevant	-9.22642
▁2024.	-9.2267
▁rbi	-9.22888
▁series	-9.22981
▁how	-9.23039
able	-9.23042
▁finally	-9.23111
▁jaitley	-9.2321
▁studies	-9.2321
▁show	-9.23236
▁took	-9.23292
▁japan	-9.23365
▁coordination	-9.23417
▁forum	-9.23461
▁multiple	-9.23471
▁drdo	-9.23494
▁vehicle	-9.23509
▁worth	-9.23593
8	-9.236
▁govt	-9.23618
▁pmo	-9.23827
▁near	-9.2383
▁jharkhand	-9.23955
▁materials	-9.23978
▁duty	-9.24207
▁exploration	-9.24259
▁transportation	-9.24404
▁aadhaar	-9.24591
▁covering	-9.24603
▁ships	-9.24635
▁consider	-9.24685
▁resolution	-9.24708
▁independence	-9.24737
▁targets	-9.24846
▁own	-9.24856
▁effect	-9.24953
▁allocated	-9.2521
▁spirit	-9.25264
▁loss	-9.25335
▁sustainability	-9.25535
▁rates	-9.25614
▁job	-9.25979
▁cyber	-9.26012
▁doing	-9.26114
▁manner	-9.26198
▁nepal	-9.26257
▁examination	-9.26339
▁official	-9.2639
▁rich	-9.26416
▁primary	-9.26418
▁focuses	-9.26563
▁selected	-9.26718
▁main	-9.26857
▁fuel	-9.26858
▁import	-9.26909
▁draft	-9.26917
▁combat	-9.27016
▁possible	-9.27066
▁mineral	-9.27234
▁namely	-9.27354
▁gadkari	-9.27378
▁iit	-9.27564
▁farming	-9.2769
▁effort	-9.2771
an	-9.27926
▁diverse	-9.27952
▁pilot	-9.28044
▁sciences	-9.28055
▁relationship	-9.28058
▁goa	-9.28215
▁gst	-9.28583
▁confidence	-9.28825
6	-9.28988
▁stage	-9.29173
▁results	-9.29271
▁signing	-9.29313
▁individual	-9.29406
▁defense	-9.29425
▁tomorrow	-9.29471
▁processes	-9.29509
▁introduced	-9.2953
▁interaction	-9.29735
▁expanding	-9.29755
▁teachers	-9.29847
▁offered	-9.29878
▁hindi	-9.29994
▁msmes	-9.3005
▁piyush	-9.30093
▁earth	-9.30113
▁reduced	-9.30177
▁proposals	-9.30206
volving	-9.30242
."	-9.30325
▁competitive	-9.30364
▁strategies	-9.30373
▁payments	-9.30418
▁rehabilitation	-9.30534
▁safe	-9.30597
▁transactions	-9.30789
▁chennai	-9.30819
▁ic	-9.30929
▁recovery	-9.30943
▁mw	-9.30993
▁subsidy	-9.31162
▁timely	-9.31338
▁him	-9.3143
▁houses	-9.31491
▁de	-9.31721
▁seven	-9.31798
▁professional	-9.31917
▁chain	-9.32049
▁lauded	-9.32097
▁video	-9.32308
▁advancements	-9.32355
▁journey	-9.32368
▁visits	-9.32373
▁parliamentary	-9.32442
▁house	-9.3245
▁indo	-9.32749
▁carried	-9.32855
▁test	-9.32999
▁suggestions	-9.33038
▁pending	-9.33085
▁essential	-9.33133
▁shakti	-9.33135
▁prosperity	-9.33148
▁partnerships	-9.33174
▁certain	-9.33213
▁teams	-9.3337
▁deep	-9.33476
▁seminar	-9.33572
▁tweet	-9.33581
▁recently	-9.33638
▁girls	-9.33718
▁regard	-9.3383
▁final	-9.33871
▁center	-9.33922
▁satellite	-9.34
▁scale	-9.34066
▁brought	-9.34156
▁emerging	-9.3418
▁counter	-9.34192
▁close	-9.34264
▁consumers	-9.34368
ary	-9.3439
▁contributing	-9.34455
▁political	-9.34457
▁times	-9.34488
▁iaf	-9.34602
▁upto	-9.34622
▁ji	-9.34924
▁costs	-9.35007
▁tourist	-9.35018
▁investments	-9.35149
▁eight	-9.3524
▁commissioner	-9.35297
▁daily	-9.35328
▁reflect	-9.35462
▁n	-9.35462
of	-9.35526
▁governor	-9.3563
term	-9.357
▁sanjay	-9.35779
▁collection	-9.35828
▁electricity	-9.35847
▁laid	-9.36143
▁compliance	-9.3618
x	-9.36185
▁complex	-9.36273
▁encouraged	-9.36302
▁loans	-9.36383
▁created	-9.36464
▁stone	-9.36497
▁extension	-9.36499
▁ocean	-9.36607
▁ten	-9.36657
▁dialogue	-9.368
▁utilization	-9.36838
▁diseases	-9.3691
▁kolkata	-9.36952
▁freedom	-9.36971
▁mode	-9.37025
▁acquisition	-9.37176
▁terrorism	-9.37206
▁assured	-9.37283
j	-9.37458
▁standard	-9.37461
▁partner	-9.37586
▁responsible	-9.37644
▁waterways	-9.37671
▁assets	-9.37747
▁hub	-9.37767
▁guard	-9.37856
▁complete	-9.37997
▁brics	-9.38012
▁intelligence	-9.38017
▁values	-9.38033
▁ka	-9.38114
▁position	-9.38125
▁colleges	-9.3817
▁hospitals	-9.38285
▁nature	-9.38316
▁maximum	-9.38425
▁uttarakhand	-9.38474
▁living	-9.38501
▁built	-9.38702
▁task	-9.38747
▁wishes	-9.38851
▁offering	-9.38935
▁items	-9.3895
▁customs	-9.39103
▁actions	-9.39129
▁link	-9.392
▁500	-9.3924
▁highway	-9.39368
▁locations	-9.39458
▁western	-9.39563
▁courses	-9.39583
▁arun	-9.39627
▁northeast	-9.39637
▁fields	-9.39773
▁recognition	-9.39778
▁transformation	-9.39897
▁numerous	-9.39921
▁similar	-9.39962
▁electric	-9.39967
▁cargo	-9.40173
▁sites	-9.40181
▁announce	-9.40386
▁opening	-9.40429
ic	-9.40444
▁fertilizers	-9.40477
▁convention	-9.40483
▁airports	-9.40577
▁directorate	-9.40644
▁see	-9.40715
▁cash	-9.4083
▁receive	-9.4083
▁academy	-9.4085
▁lakhs	-9.40853
▁text	-9.40862
▁despi	-9.40941
▁grant	-9.41099
▁asian	-9.41105
▁uts	-9.41111
▁leveraging	-9.4125
▁guest	-9.41266
▁requested	-9.41278
9	-9.41331
▁chhattisgarh	-9.41406
▁product	-9.41474
▁park	-9.41601
▁delegates	-9.41735
▁nuclear	-9.41814
▁productivity	-9.42103
▁track	-9.4215
▁maintain	-9.4222
▁textiles	-9.42565
▁actively	-9.42642
▁devices	-9.42649
▁2025.	-9.4265
▁basic	-9.42747
▁lanka	-9.42789
▁showcase	-9.43026
▁ayurveda	-9.43145
▁material	-9.43213
▁nadda	-9.43233
▁bringing	-9.43388
▁right	-9.43469
▁institutional	-9.43538
▁upcoming	-9.43539
▁sections	-9.43877
▁disease	-9.43985
▁requirement	-9.43991
▁directed	-9.44034
▁body	-9.44065
▁heavy	-9.44186
▁collaborative	-9.44221
▁amit	-9.44233
▁enabling	-9.44267
▁celebrated	-9.44455
▁beyond	-9.44671
▁ideas	-9.44695
▁until	-9.44738
▁challenge	-9.44995
▁telangana	-9.45156
▁jobs	-9.45218
▁conclave	-9.45227
▁procedures	-9.45367
▁round	-9.45471
▁regulation	-9.45509
▁platforms	-9.45565
▁secretaries	-9.45581
▁leader	-9.45666
▁appreciated	-9.45752
▁l	-9.45867
citing	-9.45875
▁notification	-9.4589
▁approves	-9.45965
▁speed	-9.46501
▁banking	-9.46532
▁code	-9.46535
▁objectives	-9.46576
▁supreme	-9.46697
▁follows	-9.46828
▁enforcement	-9.46945
▁rescue	-9.46964
▁extend	-9.47
▁just	-9.47001
▁coaches	-9.47134
▁2022,	-9.47241
▁regions	-9.47275
▁calls	-9.47382
▁started	-9.47538
▁achievement	-9.4754
▁manipur	-9.47574
▁globally	-9.47587
▁farmer	-9.47605
▁money	-9.47641
▁offers	-9.47673
▁amrit	-9.47737
▁unity	-9.48192
▁categories	-9.48305
▁vikas	-9.48351
▁patel	-9.48361
▁lt	-9.48361
▁utilize	-9.4838
▁cancer	-9.48387
▁historical	-9.48425
▁st	-9.48494
▁edition	-9.48547
▁usd	-9.48571
▁flag	-9.48593
▁abhiyan	-9.48637
▁pensioners	-9.48651
▁remote	-9.48667
▁doner	-9.48744
▁vi	-9.48834
▁fiscal	-9.48949
▁expand	-9.49051
▁posts	-9.49054
▁investors	-9.49077
▁language	-9.49084
▁languages	-9.49264
▁viz	-9.49317
▁bureau	-9.49371
▁appointment	-9.49421
▁percent	-9.49457
▁grievance	-9.49502
▁put	-9.49574
▁pic	-9.49652
▁admiral	-9.49796
▁offer	-9.49868
▁varanasi	-9.49889
make	-9.49907
▁200	-9.50078
▁isro	-9.50207
▁sides	-9.50294
▁robust	-9.50304
▁card	-9.50454
▁feature	-9.50542
▁fdi	-9.50572
▁raj	-9.50574
▁museum	-9.50613
▁innovations	-9.50639
▁accessible	-9.50673
▁war	-9.50684
▁rice	-9.5069
▁cross	-9.50834
▁live	-9.50843
▁additionally	-9.50894
▁u	-9.50992
▁africa	-9.50994
▁significance	-9.50994
▁route	-9.51032
▁organic	-9.51058
▁ncc	-9.51068
▁serve	-9.51138
▁inaugurate	-9.51144
▁component	-9.51156
▁agreements	-9.51173
▁bengaluru	-9.51203
dal	-9.51206
▁venkaiah	-9.51424
▁transition	-9.51476
▁hosted	-9.51508
▁australia	-9.51577
▁inaugural	-9.51598
▁camp	-9.51605
▁70	-9.51666
▁35	-9.51694
▁medicines	-9.51726
▁old	-9.51813
▁2025,	-9.51822
▁sinha	-9.51859
▁redressal	-9.51861
▁inauguration	-9.51955
▁contract	-9.52126
▁bridge	-9.5215
▁base	-9.52272
▁initiated	-9.52307
▁points	-9.52342
▁amendments	-9.52435
twitter	-9.52502
▁investigation	-9.52542
▁dedication	-9.52568
▁hyderabad	-9.52573
▁uk	-9.52636
time	-9.52757
▁directly	-9.52812
▁align	-9.52823
▁wide	-9.52858
se	-9.53018
▁run	-9.53019
▁advance	-9.53102
▁grants	-9.53143
▁socio	-9.53145
10	-9.53249
▁below	-9.53273
▁encouraging	-9.53346
▁himachal	-9.53346
▁professionals	-9.53869
▁found	-9.54058
▁disposal	-9.54246
▁cooperative	-9.54256
▁talent	-9.54433
▁matter	-9.5449
▁prevent	-9.54519
▁campaigns	-9.54572
▁suresh	-9.54599
▁nearly	-9.54725
▁deputy	-9.54789
▁operating	-9.54956
▁minerals	-9.54998
▁constituted	-9.55001
ive	-9.55053
▁appropriate	-9.55056
▁away	-9.55124
▁components	-9.55206
▁dharmendra	-9.55214
▁2014-15	-9.55264
▁prabhu	-9.55394
▁surveillance	-9.55411
▁mark	-9.55427
▁athletes	-9.55445
▁spread	-9.55493
▁selection	-9.55509
▁lpg	-9.55595
▁interventions	-9.55621
▁index	-9.55785
▁bhawan	-9.56055
▁condolences	-9.56063
▁remain	-9.56245
▁holistic	-9.56296
▁certificates	-9.5652
▁atal	-9.56541
▁spoke	-9.56604
▁nutrition	-9.56606
▁season	-9.56668
▁invited	-9.56681
▁kg	-9.56748
▁outstanding	-9.56769
▁singapore	-9.56811
▁laws	-9.56833
▁electronics	-9.56928
▁gen	-9.56973
▁parts	-9.5698
am	-9.57046
▁freight	-9.57131
▁fire	-9.57155
▁soil	-9.57239
▁go	-9.57247
▁sugar	-9.57302
▁extensive	-9.57358
▁expertise	-9.57486
▁summarize	-9.57489
▁attend	-9.57518
▁financing	-9.57537
▁ceo	-9.57598
▁collaborations	-9.57736
▁mandaviya	-9.57761
▁implement	-9.57817
▁explore	-9.58003
▁gathering	-9.58006
▁80	-9.58025
▁murmu	-9.58038
▁experiences	-9.58132
▁least	-9.58179
▁nath	-9.58291
▁personal	-9.58337
▁schedule	-9.58353
▁rashtriya	-9.58459
▁utilizing	-9.58687
▁person	-9.58704
▁delivered	-9.58841
▁linked	-9.58873
▁strength	-9.59014
▁ias	-9.59142
▁property	-9.59153
▁rejuvenation	-9.59254
▁jal	-9.59303
relating	-9.59401
▁equity	-9.59474
▁block	-9.5949
ers	-9.59526
▁thus	-9.59529
▁celebration	-9.5975
▁incentives	-9.59841
economic	-9.59859
▁markets	-9.59887
▁light	-9.59897
▁rijiju	-9.60091
▁consumption	-9.60102
▁workshops	-9.60116
▁sources	-9.60132
▁exceeding	-9.60183
▁matters	-9.60385
▁imports	-9.60529
▁search	-9.60553
▁honour	-9.6057
▁nh	-9.60616
▁continuous	-9.60623
▁usa	-9.60659
▁conducting	-9.60753
▁certificate	-9.60774
▁source	-9.6084
▁mahatma	-9.60848
▁head	-9.60876
▁generate	-9.60879
▁irrigation	-9.60887
▁back	-9.60933
▁side	-9.61099
▁khadi	-9.61194
▁records	-9.61306
▁artisans	-9.61312
▁analysis	-9.61335
us	-9.61336
▁principal	-9.61416
▁entities	-9.61438
▁radio	-9.61539
▁coming	-9.6157
▁maintaining	-9.61654
▁2017.	-9.61763
▁supported	-9.61794
▁mega	-9.61826
▁husbandry	-9.61899
▁published	-9.61917
▁less	-9.61958
free	-9.62036
▁concludes	-9.62111
▁recruitment	-9.62205
▁ministerial	-9.62316
▁lower	-9.6232
▁metro	-9.62331
▁cards	-9.62337
▁division	-9.62449
▁soon	-9.6245
▁substantial	-9.62538
▁nitin	-9.62564
▁executive	-9.62583
▁ki	-9.62635
▁universal	-9.62738
▁identify	-9.62804
▁man	-9.62832
▁complaints	-9.62877
▁advised	-9.62895
▁f	-9.62949
▁gap	-9.62996
▁winners	-9.63008
▁remaining	-9.63045
▁partners	-9.6308
▁preparedness	-9.63159
▁facilitating	-9.6326
▁student	-9.63308
▁located	-9.63492
▁saw	-9.63519
▁tripura	-9.63545
▁site	-9.63567
▁master	-9.63599
▁presentation	-9.63649
▁considered	-9.63786
▁boosting	-9.63969
▁keeping	-9.64036
▁cell	-9.6408
▁france	-9.64456
▁2020	-9.64495
▁aid	-9.64592
▁manohar	-9.64624
▁adopted	-9.64753
▁norms	-9.6479
▁2013	-9.64845
▁outreach	-9.65022
▁minority	-9.65037
▁emphasis	-9.65158
▁covid	-9.65182
▁background	-9.65222
▁few	-9.65383
▁later	-9.65406
▁therefore	-9.65417
▁arunachal	-9.65516
▁core	-9.6565
▁annually	-9.65676
▁fully	-9.65707
▁emergency	-9.65747
▁certification	-9.65814
▁carbon	-9.65843
▁likely	-9.66057
▁2016-17	-9.66128
▁poverty	-9.66433
▁jk	-9.66497
▁marks	-9.6672
▁mental	-9.6672
▁engaged	-9.66772
▁households	-9.67008
▁showcased	-9.67009
▁submit	-9.6702
▁sitharaman	-9.67041
▁passing	-9.67048
▁nine	-9.67167
▁empowering	-9.67275
▁procedure	-9.67362
ya	-9.6742
▁w	-9.67435
▁parties	-9.67442
▁mohan	-9.67486
▁flight	-9.6751
▁behalf	-9.67637
▁drinking	-9.67644
▁transparent	-9.67899
▁protect	-9.68019
-19	-9.68052
▁blocks	-9.68098
▁hydrogen	-9.68257
▁gender	-9.68263
▁faced	-9.68292
▁broadcasting	-9.68355
▁ambedkar	-9.68356
▁associated	-9.68357
▁feedback	-9.68399
▁cadets	-9.68431
▁bidding	-9.68438
▁crops	-9.68439
▁display	-9.68507
▁memorial	-9.68651
▁150	-9.68761
▁mahotsav	-9.68772
▁eve	-9.68823
▁ayushman	-9.68834
▁allow	-9.68836
▁mela	-9.68881
▁men	-9.68881
▁securities	-9.6907
▁reaching	-9.69074
▁modernization	-9.69178
▁involves	-9.69203
▁vessels	-9.69207
▁comprising	-9.69373
▁pulses	-9.6951
▁institution	-9.69515
▁accident	-9.69639
▁prepared	-9.69661
▁agenda	-9.69684
friendly	-9.69685
▁panchayats	-9.69801
ta	-9.6983
▁always	-9.69892
▁point	-9.699
▁latest	-9.70021
▁deliver	-9.70067
▁web	-9.70091
▁mechanisms	-9.70296
▁chandra	-9.70313
▁look	-9.70377
▁asked	-9.70464
▁outcomes	-9.70508
▁sonowal	-9.70622
ever	-9.70685
▁career	-9.70737
▁manufacturers	-9.70841
▁reached	-9.70947
▁textile	-9.71028
▁user	-9.7114
being	-9.71275
▁ut	-9.71275
▁produce	-9.71379
▁able	-9.71423
▁corridor	-9.71538
▁trained	-9.71575
it	-9.7177
▁plastic	-9.71792
▁panel	-9.71875
▁mobility	-9.71909
▁mha	-9.71917
▁ethanol	-9.71953
▁introduction	-9.71994
▁managing	-9.7214
▁russia	-9.72218
▁1000	-9.72266
re	-9.72352
▁deployment	-9.72526
▁jointly	-9.72742
▁example	-9.72821
▁flood	-9.72916
▁internal	-9.73028
▁resilience	-9.73061
▁eco	-9.73063
▁attract	-9.73071
▁quantum	-9.73169
▁presentations	-9.73191
▁winning	-9.73309
▁gdp	-9.73346
▁mandatory	-9.73491
▁appointed	-9.73568
▁aiims	-9.73599
▁won	-9.73694
▁gave	-9.73708
▁taxes	-9.73878
▁underway	-9.74026
▁o	-9.74062
▁icar	-9.74184
▁announcement	-9.7425
▁content	-9.74332
▁specifically	-9.74364
▁headquarters	-9.74388
▁advisory	-9.74493
▁soldiers	-9.74504
▁orders	-9.74599
▁healthy	-9.74651
▁prior	-9.74789
▁monitor	-9.74828
▁vardhan	-9.74875
▁reiterated	-9.74952
state	-9.74985
▁paper	-9.75042
▁mahesh	-9.75042
▁shift	-9.75122
▁urging	-9.75232
▁problems	-9.75308
▁csr	-9.75349
▁90	-9.75367
▁crime	-9.75658
▁prasad	-9.75708
▁note	-9.75718
▁request	-9.75743
▁speakers	-9.75766
▁ndrf	-9.75782
droupadi	-9.75892
▁autonomous	-9.76034
▁move	-9.76068
▁zero	-9.76086
▁democracy	-9.76113
▁raising	-9.76247
▁says	-9.7628
east	-9.76282
▁organizing	-9.76335
▁observed	-9.76346
▁connect	-9.76424
▁assembly	-9.76458
▁article	-9.76492
▁path	-9.76671
▁twitter	-9.76737
▁pro	-9.76757
▁abroad	-9.7678
▁limit	-9.76818
▁notes	-9.76919
▁seen	-9.76927
▁rajiv	-9.76966
▁handling	-9.77004
▁suggested	-9.7701
ii	-9.77114
▁lines	-9.77213
▁terminal	-9.7727
▁decisions	-9.77473
▁giving	-9.77491
▁tests	-9.77537
▁livelihood	-9.77583
-1	-9.77599
▁tb	-9.77603
▁thereby	-9.77686
▁big	-9.77762
▁wheat	-9.77806
▁guwahati	-9.77815
▁faculty	-9.77926
▁concern	-9.77974
▁hope	-9.78022
▁incentive	-9.78039
▁administered	-9.78047
▁nhai	-9.78133
▁pune	-9.78134
▁ever	-9.78262
▁trading	-9.78266
▁33	-9.78319
▁islands	-9.78321
ization	-9.78331
▁roadmap	-9.78382
▁rule	-9.78497
▁vaccine	-9.78507
▁handloom	-9.7859
▁2017-18	-9.78613
▁vijay	-9.78639
▁harmony	-9.78805
▁dg	-9.78998
as	-9.79019
▁tour	-9.79137
▁users	-9.79165
▁leverage	-9.79197
▁places	-9.79251
▁mass	-9.7931
▁celebrating	-9.79402
▁documents	-9.79476
▁psus	-9.79478
▁45	-9.79612
na	-9.79864
▁initial	-9.79914
▁empower	-9.80053
▁bids	-9.80125
▁researchers	-9.80161
▁tomar	-9.8019
▁pride	-9.80296
▁follow	-9.80531
▁36	-9.80546
▁marine	-9.80547
▁wind	-9.80548
▁adequate	-9.80722
▁rise	-9.80793
▁death	-9.80836
▁representing	-9.80871
▁mansukh	-9.80873
▁return	-9.80922
▁resulted	-9.80929
▁diversity	-9.80949
▁collective	-9.80956
!	-9.80985
▁audit	-9.81003
▁31,	-9.81011
▁secondary	-9.81022
ups	-9.81029
▁swachhata	-9.81054
▁urea	-9.81264
ak	-9.81295
▁appointments	-9.81302
▁visa	-9.81392
▁2014.	-9.81401
▁fertilizer	-9.81437
▁primarily	-9.81455
▁declaration	-9.81477
▁serving	-9.81477
▁separate	-9.81707
▁grid	-9.81816
▁methods	-9.81834
▁toilets	-9.81864
▁identification	-9.82041
▁witnessed	-9.82119
▁gw	-9.82129
▁milestone	-9.82227
▁recommended	-9.82258
▁external	-9.82276
▁package	-9.82505
▁context	-9.82512
▁emissions	-9.82528
▁rapid	-9.82594
ation	-9.82596
▁much	-9.82631
▁english	-9.8265
▁courts	-9.82744
▁solution	-9.82765
▁missions	-9.82827
▁kovind	-9.82985
▁debt	-9.83074
▁raised	-9.83164
▁secure	-9.83217
▁harsh	-9.83251
▁installed	-9.83264
▁meghalaya	-9.83356
▁generated	-9.83361
▁deployed	-9.83407
▁check	-9.83517
▁2022-23	-9.83536
rs	-9.83684
▁nirmala	-9.83702
▁accessibility	-9.83715
▁sikkim	-9.83734
▁furthermore	-9.83822
▁tweeted	-9.83968
▁click	-9.8408
▁initially	-9.84094
le	-9.84147
▁remains	-9.84167
▁parrikar	-9.84177
▁2017,	-9.84276
▁functioning	-9.84283
▁kiren	-9.84298
▁engage	-9.8435
▁hold	-9.8444
▁declared	-9.84505
▁manoj	-9.84564
▁featured	-9.846
▁entry	-9.84601
▁artificial	-9.84674
▁keep	-9.84794
▁2014,	-9.84862
▁2,	-9.84927
▁update	-9.84963
▁para	-9.85053
▁principles	-9.85155
long	-9.85188
▁reddy	-9.85195
▁ahead	-9.85238
▁distinguished	-9.85273
▁transmission	-9.85302
▁direction	-9.85316
▁consideration	-9.85403
▁lack	-9.85416
▁mp	-9.85515
competitive	-9.85636
▁centrally	-9.85645
▁classes	-9.8565
▁balance	-9.85729
▁krishi	-9.85798
pur	-9.85819
▁providers	-9.8595
▁asean	-9.85975
▁300	-9.86014
▁expert	-9.86142
▁distributed	-9.86254
▁known	-9.86275
▁connections	-9.86296
art	-9.86375
▁electrification	-9.86483
▁statistics	-9.86491
▁funded	-9.86532
▁practice	-9.86545
reliance	-9.86629
▁2.	-9.8669
▁ntpc	-9.8673
▁resolve	-9.86779
▁according	-9.8687
▁congratulate	-9.86957
▁warm	-9.86963
▁interactive	-9.86998
▁models	-9.87047
or	-9.87063
▁holding	-9.87093
▁amended	-9.87143
▁targeted	-9.8738
▁means	-9.87541
▁apart	-9.8756
▁wherein	-9.87596
▁connecting	-9.87614
▁undertaking	-9.8762
ar	-9.87663
▁stress	-9.87716
▁millets	-9.87756
▁iron	-9.87766
▁figures	-9.88019
ri	-9.88025
▁01	-9.88064
▁yadav	-9.88118
▁celebrate	-9.88161
▁mous	-9.88213
▁injured	-9.88217
▁guarantee	-9.88435
▁cleaning	-9.88591
▁2.0	-9.88605
▁adopt	-9.8863
▁medals	-9.88688
▁crude	-9.88718
▁carrying	-9.88812
▁pakistan	-9.88859
▁receiving	-9.89096
▁sales	-9.89096
▁camps	-9.89135
▁dairy	-9.89263
▁topics	-9.89267
▁interactions	-9.89377
▁chandigarh	-9.8938
▁campus	-9.89424
▁starting	-9.89446
▁effectively	-9.89751
▁accordingly	-9.89764
▁raise	-9.89884
▁retail	-9.89897
▁newly	-9.899
▁heart	-9.89945
ized	-9.90008
▁municipal	-9.90139
▁organisations	-9.90215
▁consist	-9.90246
▁upgradation	-9.90441
led	-9.90453
▁uae	-9.90499
▁carry	-9.90524
▁chaudhary	-9.90524
▁generating	-9.90671
▁businesses	-9.90693
▁gem	-9.90707
▁internet	-9.90772
▁highlight	-9.90787
▁bhutan	-9.90818
▁forms	-9.90821
▁going	-9.90894
▁myanmar	-9.91013
▁sai	-9.91058
▁vide	-9.91058
▁monthly	-9.91063
▁friendship	-9.91262
▁ngos	-9.91301
▁face	-9.9139
▁undertake	-9.91415
▁allowed	-9.91465
▁1.	-9.91552
▁tribute	-9.91562
▁reporting	-9.91627
▁territory	-9.91648
ma	-9.91661
▁auctions	-9.91737
▁visitors	-9.91757
▁yesterday	-9.91788
▁chemicals	-9.91829
▁fish	-9.9186
▁savings	-9.91898
▁ppp	-9.92052
▁larger	-9.92133
▁evaluation	-9.92275
▁yet	-9.92301
▁everyone	-9.92443
▁length	-9.92534
▁silver	-9.92557
▁combating	-9.92581
▁epfo	-9.92585
▁committees	-9.92601
▁operators	-9.9272
▁bis	-9.92844
▁missile	-9.92895
▁inland	-9.92939
▁capability	-9.9295
▁guidance	-9.9296
▁because	-9.92962
▁patients	-9.92977
▁assume	-9.92981
▁fast	-9.92986
▁factors	-9.93004
▁parade	-9.93036
aligning	-9.93053
▁yatra	-9.93144
ms	-9.93156
▁ugc	-9.93215
▁2021	-9.93287
▁music	-9.93314
▁nagaland	-9.93343
▁involvement	-9.93478
▁interests	-9.93487
▁prominent	-9.93571
▁thakur	-9.93629
▁claims	-9.93643
▁activity	-9.93659
▁korea	-9.93664
▁parks	-9.93692
▁temple	-9.93817
▁throughout	-9.93845
▁communications	-9.94048
▁visiting	-9.94105
▁numbers	-9.94189
▁vulnerable	-9.94268
▁fourth	-9.94299
▁tools	-9.94354
▁laboratories	-9.94401
▁criteria	-9.94411
▁faster	-9.94436
ti	-9.94436
is	-9.94495
▁views	-9.94506
▁gratitude	-9.94534
▁milk	-9.94586
▁zone	-9.94636
▁resilient	-9.94659
▁clearance	-9.94775
▁host	-9.94784
▁scholarship	-9.94893
▁running	-9.94934
▁outlay	-9.94938
▁facilitation	-9.94942
▁32	-9.95022
▁cause	-9.9519
▁enhancement	-9.95193
▁recognized	-9.95228
▁elections	-9.95312
▁convocation	-9.95335
▁compensation	-9.9547
▁files	-9.95494
▁join	-9.95517
▁involve	-9.95622
▁2019	-9.95623
▁hand	-9.95682
▁destination	-9.95743
▁prakash	-9.95826
▁lal	-9.95853
▁mv	-9.95856
▁noting	-9.95873
▁accountability	-9.95879
▁underscored	-9.95959
▁federation	-9.95979
▁does	-9.95996
▁eminent	-9.96035
▁traditions	-9.96057
▁associations	-9.96062
▁huge	-9.96107
▁immediate	-9.96108
▁bonds	-9.96186
▁served	-9.96247
▁once	-9.96276
▁assess	-9.963
▁tribes	-9.96337
▁presently	-9.96663
▁expedite	-9.96681
▁visakhapatnam	-9.96707
▁welcome	-9.96758
▁labs	-9.96797
▁performances	-9.96878
▁historic	-9.9695
▁southern	-9.96975
▁launching	-9.97019
da	-9.97094
▁accordance	-9.97095
▁literacy	-9.9712
▁stand	-9.97204
▁toll	-9.97221
▁method	-9.97335
▁happiness	-9.97368
ion	-9.9739
▁excellency	-9.97505
▁workforce	-9.97507
▁stability	-9.97508
▁permanent	-9.97508
▁films	-9.97575
▁contingent	-9.9775
▁flagship	-9.97781
tributed	-9.97812
▁granted	-9.9793
▁welcomed	-9.97982
▁circular	-9.98024
▁satisfaction	-9.98055
▁pan	-9.98123
ka	-9.98286
▁black	-9.98327
▁ore	-9.98368
▁victims	-9.98437
▁happy	-9.98488
▁hard	-9.98638
▁becoming	-9.98653
▁stocks	-9.98697
▁please	-9.98779
▁wildlife	-9.98805
▁marshal	-9.98811
▁panchayat	-9.98936
▁vessel	-9.9897
▁northern	-9.9904
▁competitions	-9.99045
▁purchase	-9.9912
▁projected	-9.9915
▁previously	-9.99184
▁structure	-9.99269
▁fee	-9.99274
▁double	-9.99284
▁zonal	-9.99303
▁inspire	-9.99364
▁protocol	-9.99401
▁dhankhar	-9.99473
▁venture	-9.99546
▁legacy	-9.99582
▁integrating	-9.99592
▁dairying	-9.99692
▁ambassador	-9.99717
▁prescribed	-9.99744
▁books	-9.99775
▁helpline	-9.99869
▁corruption	-9.99879
▁doses	-9.99936
▁emphasised	-9.99961
▁amenities	-10
▁allows	-10.0009
▁evidence	-10.0014
▁combined	-10.0015
▁col	-10.0031
▁inputs	-10.0032
▁q	-10.0036
▁thanked	-10.0037
▁exchanges	-10.0046
w	-10.0053
▁tributes	-10.0055
▁academia	-10.006
▁domain	-10.0063
▁name	-10.0064
▁broader	-10.0074
ra	-10.0078
▁doctors	-10.0091
▁flow	-10.0094
▁comments	-10.0103
▁thermal	-10.0104
▁driven	-10.0104
▁competitiveness	-10.0114
▁location	-10.0115
▁vibrant	-10.0116
▁seed	-10.0122
governance	-10.0125
▁presidency	-10.0128
▁sarbananda	-10.0128
▁annum	-10.0131
▁designated	-10.0132
▁consultations	-10.0141
at	-10.0144
▁totaling	-10.0146
▁artists	-10.0155
▁commissioned	-10.0155
▁backward	-10.0156
▁violence	-10.0158
▁radha	-10.0162
▁3.	-10.0178
▁rao	-10.0183
▁gross	-10.0185
▁biotechnology	-10.0185
la	-10.0195
▁preparation	-10.02
▁reservation	-10.0203
▁constructed	-10.0204
▁kind	-10.0205
▁fixed	-10.0219
▁mishra	-10.0228
▁alternative	-10.0242
▁vital	-10.0256
▁livestock	-10.0257
▁nagar	-10.0257
▁me	-10.0272
▁specified	-10.0272
ia	-10.0275
building	-10.0283
▁pertain	-10.03
▁transformative	-10.03
▁half	-10.0306
▁trafficking	-10.0307
▁andaman	-10.0315
▁played	-10.0315
▁scope	-10.0318
▁mitigation	-10.0329
▁tourists	-10.0337
▁10,000	-10.0341
▁legislative	-10.0347
▁voluntary	-10.0348
▁formed	-10.0351
▁connected	-10.0351
▁driving	-10.0373
▁corresponding	-10.0373
▁navigation	-10.0385
▁itself	-10.0403
▁sc	-10.0407
▁extreme	-10.0418
departments	-10.0418
▁seva	-10.0418
▁prize	-10.0421
▁rising	-10.0428
man	-10.043
▁left	-10.0431
▁reform	-10.0439
25	-10.0441
▁lucknow	-10.0451
▁produced	-10.0455
▁ready	-10.046
▁spectrum	-10.0464
▁contributed	-10.0465
▁sco	-10.0465
50	-10.0468
▁sponsored	-10.0471
▁what	-10.049
▁grace	-10.049
▁problem	-10.0494
▁parameters	-10.051
▁honor	-10.051
▁formation	-10.0541
▁hrd	-10.0541
▁conveyed	-10.055
▁stands	-10.0568
▁chairmanship	-10.0583
▁submission	-10.0588
▁courage	-10.0594
▁fleet	-10.0594
▁thousand	-10.0599
▁assist	-10.0607
▁techniques	-10.0617
▁supports	-10.062
▁directors	-10.0622
▁anganwadi	-10.0632
▁2000	-10.0634
▁software	-10.0639
▁estimates	-10.0644
wise	-10.0655
▁3,	-10.0662
▁original	-10.0671
▁hectares	-10.0671
▁integrity	-10.0684
▁mandate	-10.0687
ro	-10.0688
▁passed	-10.0693
▁whole	-10.0699
▁intellectual	-10.0699
▁themes	-10.0707
▁boards	-10.0707
▁exercises	-10.0716
▁verification	-10.0722
▁convey	-10.0725
▁skilled	-10.0729
▁proud	-10.0729
▁crew	-10.0729
▁invest	-10.0733
▁65	-10.0734
private	-10.0735
▁recognize	-10.0738
▁positions	-10.0745
com	-10.0747
▁acknowledged	-10.0747
▁34	-10.0752
▁demonstration	-10.0753
▁commemorat	-10.0755
▁attack	-10.0765
▁revolution	-10.0773
▁female	-10.0774
▁intervention	-10.0782
▁fees	-10.0792
▁collaborate	-10.0797
▁covers	-10.0798
▁puri	-10.0803
▁suitable	-10.0805
▁mizoram	-10.0806
▁pricing	-10.0807
▁nominal	-10.082
▁pledge	-10.0821
▁contracts	-10.0826
▁developmental	-10.0827
▁manual	-10.0828
▁spiritual	-10.0836
▁regularly	-10.0845
▁party	-10.0846
▁joshi	-10.0851
▁bima	-10.0851
▁quarter	-10.0851
▁connection	-10.0859
▁fulfill	-10.086
▁teacher	-10.0866
▁tariff	-10.0867
▁titled	-10.0868
▁indonesia	-10.0871
▁buddhist	-10.0881
▁poshan	-10.0892
▁avoid	-10.0894
▁channels	-10.0909
▁geo	-10.0909
▁continues	-10.0913
▁vocational	-10.093
▁naik	-10.0935
▁upsc	-10.0937
▁laying	-10.0938
▁earthquake	-10.094
▁nicobar	-10.0943
▁chairperson	-10.0945
▁batch	-10.0947
▁viksit	-10.0953
▁strengthened	-10.0953
▁dhan	-10.097
▁helicopter	-10.0973
▁al	-10.0979
▁opened	-10.098
▁ways	-10.098
▁4,	-10.0985
▁kisan	-10.0991
▁ratio	-10.0994
▁cil	-10.0995
▁arrangements	-10.0998
▁chemical	-10.0998
est	-10.1
▁meters	-10.1004
▁laboratory	-10.1005
▁2012	-10.102
▁dance	-10.1023
▁horticulture	-10.1023
▁conferred	-10.1037
▁ahmedabad	-10.1038
▁2024-25	-10.1038
▁congress	-10.1052
▁mine	-10.1052
▁curriculum	-10.1052
▁insolvency	-10.1053
related	-10.1054
▁losses	-10.1054
▁seeks	-10.1056
▁sq	-10.1057
▁plantation	-10.1066
▁ma	-10.1068
▁charges	-10.1072
▁germany	-10.1073
▁exploring	-10.1083
▁ranking	-10.1087
▁register	-10.1107
tech	-10.1118
▁attention	-10.113
▁sewage	-10.113
▁odf	-10.113
▁identity	-10.1146
▁khelo	-10.1152
▁contact	-10.1175
▁understand	-10.1176
▁dbt	-10.1177
▁usage	-10.1181
▁wellness	-10.1182
▁goi	-10.1182
▁diaspora	-10.1193
0	-10.1205
centric	-10.1206
▁applicable	-10.1209
▁42	-10.1226
▁raw	-10.1236
▁expedition	-10.1237
▁beneficiary	-10.1242
▁maldives	-10.1245
▁4.0	-10.1248
▁shows	-10.1256
▁solid	-10.1266
▁grand	-10.1275
▁letter	-10.1286
▁agri	-10.1295
▁identifying	-10.1299
▁ambitious	-10.1321
▁producer	-10.1321
▁ict	-10.1323
▁premises	-10.1327
▁routes	-10.1329
▁suggest	-10.1333
▁beginning	-10.1337
▁duties	-10.1337
▁still	-10.1337
▁examples	-10.1341
▁concept	-10.1341
▁37	-10.135
▁satellites	-10.1363
▁wing	-10.1365
allowing	-10.1367
▁expanded	-10.1368
▁remarkable	-10.1369
▁handicrafts	-10.1369
▁reviews	-10.1373
age	-10.1376
▁subsidies	-10.1385
▁farm	-10.1392
▁broad	-10.1393
▁38	-10.1395
▁exporters	-10.1397
▁fact	-10.14
▁engaging	-10.1403
▁guru	-10.141
▁equal	-10.1413
national	-10.1415
▁saudi	-10.1419
▁arabia	-10.1422
▁religious	-10.1423
▁needed	-10.1423
▁showing	-10.1424
▁monsoon	-10.1424
▁vigilance	-10.1425
ness	-10.1433
▁stateut	-10.1438
▁vigyan	-10.144
▁maha	-10.1441
▁insights	-10.1448
▁obtain	-10.145
▁nehru	-10.145
▁padma	-10.145
▁4.	-10.1462
▁cmd	-10.1478
▁detection	-10.1482
▁expo	-10.1523
▁commander	-10.1523
▁teaching	-10.1531
commerce	-10.1534
▁census	-10.1548
▁valuable	-10.1548
▁underscore	-10.1549
▁mjps	-10.1552
▁establishments	-10.1557
▁shown	-10.1557
▁livelihoods	-10.1578
▁virtual	-10.158
▁increases	-10.159
▁meets	-10.1598
▁talks	-10.1618
▁maintained	-10.1618
▁unani	-10.1631
▁pavilion	-10.1647
ble	-10.165
▁options	-10.1661
▁placed	-10.1663
▁standing	-10.1665
▁cutting	-10.1674
▁learn	-10.1675
▁street	-10.1682
vi	-10.1683
▁advocat	-10.169
▁extending	-10.17
▁commemorate	-10.1709
▁size	-10.1711
▁operate	-10.1723
▁manpower	-10.173
▁aspirations	-10.1739
▁tobacco	-10.175
▁saving	-10.1751
▁disability	-10.1763
▁pli	-10.1774
eastern	-10.1783
▁pharmaceutical	-10.1784
▁jute	-10.1797
▁sail	-10.1814
▁installation	-10.1816
scale	-10.1816
▁household	-10.1816
▁pratap	-10.183
▁coordinated	-10.1833
▁filed	-10.1834
▁heads	-10.1836
▁statutory	-10.1837
▁roles	-10.1838
▁tracking	-10.1839
▁returns	-10.184
▁7,	-10.1841
▁reviewing	-10.1845
▁option	-10.1852
▁similarly	-10.1855
▁positivity	-10.1864
▁lost	-10.1866
▁canada	-10.1873
▁proper	-10.1878
▁filing	-10.1882
▁arjun	-10.1882
z	-10.1887
▁russian	-10.1896
▁inception	-10.1898
▁condole	-10.1899
▁2011	-10.1909
▁swachhta	-10.1913
▁bronze	-10.1915
▁rivers	-10.1929
▁regime	-10.1932
-2	-10.1936
▁multilateral	-10.1936
▁55	-10.1937
▁warning	-10.1937
▁commenced	-10.1941
▁pandemic	-10.1942
▁jaipur	-10.1943
▁condition	-10.1943
▁400	-10.1945
▁lab	-10.1948
▁mother	-10.1961
▁44	-10.1963
▁themselves	-10.1967
▁lmt	-10.1971
▁mandated	-10.1974
▁vii	-10.1983
▁priorities	-10.1984
▁inaugurates	-10.1992
▁2018-19	-10.1993
▁elector	-10.2008
▁super	-10.2009
▁players	-10.2011
▁convergence	-10.2018
▁aktvbash	-10.2018
▁alongside	-10.2019
▁database	-10.2022
▁43	-10.204
▁malaysia	-10.204
▁paris	-10.2051
▁meity	-10.2053
▁highly	-10.2053
▁mauritius	-10.2059
▁recalled	-10.206
▁formal	-10.2062
▁subsequent	-10.2066
▁democratic	-10.207
▁subhash	-10.2071
▁trai	-10.2073
▁accelerate	-10.2081
▁biodiversity	-10.2104
▁irani	-10.2107
▁outside	-10.2107
▁negotiations	-10.2116
▁motor	-10.2116
▁societal	-10.2122
▁cultivation	-10.2122
▁overseas	-10.2122
▁ir	-10.2128
▁hrs	-10.2133
▁indigenously	-10.2134
▁48	-10.2135
▁immense	-10.2136
▁arts	-10.2136
▁pal	-10.2138
▁instructions	-10.2139
▁warfare	-10.2139
16	-10.2139
▁oversee	-10.2148
▁marking	-10.2155
▁either	-10.2156
▁eci	-10.2159
▁find	-10.2172
▁doubling	-10.2175
▁16,	-10.219
▁empowered	-10.2199
▁49	-10.2202
ist	-10.2204
▁eligibility	-10.2212
▁residential	-10.2231
▁imported	-10.2234
kar	-10.2236
▁briefed	-10.2238
▁aspirational	-10.2247
▁vietnam	-10.2252
ur	-10.226
▁haj	-10.2261
▁pharmaceuticals	-10.2265
ni	-10.2277
▁except	-10.2279
▁1.5	-10.2279
▁inspection	-10.2284
▁allied	-10.2284
▁landscape	-10.2286
▁reference	-10.2292
▁diabetes	-10.2299
▁tiger	-10.2304
▁mind	-10.2308
▁red	-10.2334
▁sagar	-10.2339
▁imd	-10.2343
▁economies	-10.235
▁minorities	-10.2352
▁exceptional	-10.2353
▁alliance	-10.2357
▁tool	-10.2362
▁bridges	-10.2377
▁criminal	-10.2379
reliant	-10.2382
▁wto	-10.2389
▁mudra	-10.2391
▁jeevan	-10.2391
▁scholarships	-10.2393
▁clear	-10.2402
▁su	-10.2404
▁ancient	-10.2405
▁takes	-10.2407
▁engineers	-10.2423
▁cotton	-10.2423
▁notice	-10.2423
11	-10.2424
▁linkages	-10.2428
▁zones	-10.2429
▁seamless	-10.2436
▁apply	-10.2438
▁rainfall	-10.2439
▁rupees	-10.2442
▁manage	-10.2445
▁collected	-10.2446
▁bid	-10.2451
▁lifestyle	-10.2451
▁illegal	-10.2454
▁uniform	-10.2454
▁beneficial	-10.2457
▁remarks	-10.246
▁2019.	-10.2477
▁baat	-10.2477
▁mapping	-10.2493
100	-10.2494
▁damage	-10.2496
▁provisional	-10.2498
▁indirect	-10.2501
▁prepare	-10.2503
▁2005	-10.2507
▁esic	-10.2513
▁assistant	-10.2513
15	-10.2517
▁deliberations	-10.2523
▁closure	-10.2531
ity	-10.255
▁30,	-10.2562
▁holders	-10.2562
▁commodities	-10.2566
▁pool	-10.2575
▁ansari	-10.2584
▁prioritize	-10.2596
▁rpf	-10.2606
▁hybrid	-10.2607
▁hour	-10.2608
▁closely	-10.2611
▁stay	-10.2614
▁proactive	-10.2617
▁14,	-10.2618
▁terrorist	-10.262
▁buildings	-10.2623
▁table	-10.263
▁changing	-10.263
▁awardees	-10.2631
▁percentage	-10.2631
▁diesel	-10.2643
▁felicitations	-10.2645
ul	-10.2648
▁surface	-10.2658
▁das	-10.2659
▁beti	-10.266
▁intended	-10.2666
▁webinar	-10.2668
▁allotted	-10.2675
▁tons	-10.2691
▁machines	-10.2693
▁recycling	-10.2694
▁homoeopathy	-10.2695
▁smriti	-10.2695
▁tree	-10.2698
one	-10.2706
out	-10.271
▁degree	-10.2711
▁medicinal	-10.2712
▁aids	-10.2715
▁equality	-10.2717
▁streamline	-10.2724
▁getting	-10.2731
▁tradition	-10.274
en	-10.2743
▁asset	-10.2749
▁sought	-10.2751
▁subsequently	-10.2753
▁utilized	-10.2765
▁weekly	-10.2767
▁cpses	-10.2772
▁lecture	-10.278
▁japanese	-10.2787
▁airlines	-10.2787
▁krishna	-10.2788
▁ncr	-10.2801
▁15,	-10.2805
▁almost	-10.2805
alia	-10.2806
▁par	-10.2809
▁particular	-10.2814
▁came	-10.2815
▁ner	-10.2818
▁bond	-10.2818
▁advocated	-10.2824
▁vaccination	-10.2826
▁automatic	-10.2842
▁offshore	-10.2842
▁har	-10.2845
▁immediately	-10.2847
▁generations	-10.2851
▁fishing	-10.2855
▁machinery	-10.2861
▁helicopters	-10.2862
▁holds	-10.2865
▁professor	-10.2867
▁profit	-10.2872
▁perspective	-10.2874
▁claim	-10.2882
▁gupta	-10.2883
▁gaps	-10.2883
▁ladakh	-10.2885
▁commended	-10.2886
▁launches	-10.2888
▁ajay	-10.289
▁functional	-10.2896
▁rest	-10.2899
▁delays	-10.2906
▁seeking	-10.2908
▁limits	-10.2915
▁creative	-10.2921
▁effectiveness	-10.2926
▁input	-10.2927
▁fighter	-10.2934
▁properties	-10.2936
▁indicators	-10.2937
▁networks	-10.294
▁accepted	-10.2946
el	-10.2961
▁corridors	-10.2962
▁dynamic	-10.2966
▁ndma	-10.2974
▁preservation	-10.2974
▁anand	-10.2979
-3	-10.2981
▁updated	-10.2984
▁thailand	-10.2985
-2018	-10.2985
▁uses	-10.2986
▁bsf	-10.2994
▁promotes	-10.3004
▁pilgrims	-10.3021
▁trials	-10.3023
▁devi	-10.3025
▁electrified	-10.3025
▁castes	-10.3028
responsibilities	-10.3031
driven	-10.3038
▁encompassing	-10.3047
▁dissemination	-10.305
▁kochi	-10.305
▁corps	-10.305
km	-10.305
▁msp	-10.3051
▁47	-10.3056
▁feasibility	-10.3061
▁commanding	-10.3064
▁evolving	-10.3066
19	-10.3073
▁century	-10.3074
▁speedy	-10.3074
▁disputes	-10.3074
▁dam	-10.3076
▁smooth	-10.308
▁kms	-10.3084
▁taxation	-10.3093
▁ha	-10.3093
▁decades	-10.3104
▁customer	-10.3109
sh	-10.3118
▁send	-10.3119
▁drought	-10.3124
▁representation	-10.3127
▁retired	-10.3129
▁himalayan	-10.3132
▁equipped	-10.3134
▁ashok	-10.3135
▁patna	-10.314
▁celebrates	-10.3163
▁taxpayers	-10.317
▁emission	-10.3173
▁olympic	-10.3181
▁brand	-10.3182
▁diwas	-10.3184
▁cement	-10.3184
▁trainees	-10.3197
▁excise	-10.3205
▁recorded	-10.3205
▁elements	-10.3207
▁referred	-10.3213
▁rabi	-10.3223
▁stakeholder	-10.3225
▁nagpur	-10.3231
▁demands	-10.3236
▁dividend	-10.3241
▁cbdt	-10.3242
▁concerning	-10.3244
pacific	-10.3252
▁caused	-10.3253
▁dopt	-10.3256
▁2006	-10.3265
▁posted	-10.3267
▁pointed	-10.3273
▁adopting	-10.3277
▁premier	-10.3281
▁vacancies	-10.3283
▁reliance	-10.3297
▁streamlining	-10.3301
▁pace	-10.3302
▁parents	-10.3303
▁directions	-10.3304
▁tech	-10.3305
▁afghanistan	-10.3307
▁publication	-10.3322
▁brazil	-10.3324
▁dst	-10.3325
▁cold	-10.3331
12	-10.3334
▁hall	-10.3336
▁javadekar	-10.3343
17	-10.3343
ian	-10.3348
▁2013-14	-10.3349
21	-10.3349
▁prestigious	-10.3359
▁revival	-10.3361
▁vendors	-10.3363
▁incorporat	-10.3367
▁french	-10.3367
▁sign	-10.3369
▁anil	-10.3371
class	-10.3373
▁stories	-10.3379
▁bamboo	-10.3381
▁judicial	-10.3384
▁vast	-10.3386
co	-10.3392
▁clusters	-10.3396
and	-10.3399
▁enabled	-10.3399
ment	-10.3401
▁buddha	-10.3402
▁blood	-10.3402
▁adb	-10.3403
de	-10.3408
▁cadre	-10.3409
▁car	-10.3414
▁homage	-10.3419
▁ashwini	-10.3422
▁kumbh	-10.3424
▁11,	-10.3427
▁nw	-10.3432
▁powers	-10.3435
▁bus	-10.3439
▁sufficient	-10.344
▁bhopal	-10.3442
▁marked	-10.3455
▁bharti	-10.3458
▁contemporary	-10.3458
▁maneka	-10.3462
lal	-10.3463
▁icg	-10.3465
▁250	-10.3473
▁iits	-10.3473
▁envisaged	-10.3479
▁machine	-10.3485
▁shankar	-10.3493
▁advisor	-10.3496
▁rajeev	-10.3499
▁behind	-10.35
▁girl	-10.3504
▁references	-10.3507
▁determined	-10.3518
▁chandrasekhar	-10.3518
▁easy	-10.352
▁towns	-10.3521
▁10,	-10.3521
▁wider	-10.3524
▁catering	-10.3533
▁facilitated	-10.3535
▁enterprise	-10.3543
▁panchayati	-10.3543
▁collections	-10.3546
▁protecting	-10.3547
▁phases	-10.3551
▁execution	-10.3558
consultative	-10.3558
▁assurance	-10.3564
▁17,	-10.3573
▁measure	-10.3575
va	-10.3578
▁qualified	-10.3584
▁yield	-10.3584
▁late	-10.3591
tax	-10.3598
▁46	-10.3602
▁ongc	-10.3607
▁select	-10.3609
▁estate	-10.3611
cum	-10.3612
▁though	-10.3616
▁pvt	-10.3617
▁hygiene	-10.3618
▁diplomatic	-10.3619
▁outcome	-10.3621
▁jayanti	-10.3622
▁closing	-10.3622
▁mutually	-10.3632
▁mps	-10.3633
▁gate	-10.3633
▁jyoti	-10.3634
▁amrut	-10.3639
▁incident	-10.3642
▁transform	-10.3643
▁attracting	-10.3644
▁stating	-10.3645
fi	-10.3647
▁cii	-10.3651
▁fuels	-10.3652
▁hosting	-10.3658
ji	-10.3662
▁tea	-10.3665
▁drone	-10.3666
▁roll	-10.3667
▁trends	-10.3679
▁tickets	-10.3684
▁stages	-10.3686
▁detail	-10.3686
▁depend	-10.3689
▁transforming	-10.3701
making	-10.3708
▁decade	-10.371
▁ke	-10.3711
▁2030	-10.3716
▁cannot	-10.372
▁audience	-10.3723
▁ability	-10.3724
▁cluster	-10.3733
▁2023-24	-10.3739
▁shaping	-10.374
▁requiring	-10.374
▁digitization	-10.374
▁darpg	-10.3745
▁described	-10.3746
▁mid	-10.3751
▁ban	-10.3756
▁publications	-10.3762
li	-10.3768
▁seats	-10.377
-20	-10.3785
▁flying	-10.3789
▁type	-10.3793
▁acres	-10.3793
▁grassroots	-10.3793
▁got	-10.3794
▁again	-10.3797
▁fresh	-10.3802
▁equitable	-10.3802
▁turn	-10.3814
▁format	-10.3821
▁jawahar	-10.3822
▁kvic	-10.3823
▁evening	-10.3837
▁acknowledging	-10.3843
▁channel	-10.3858
▁skilling	-10.3859
▁verma	-10.3864
▁transaction	-10.3868
▁rank	-10.387
▁acts	-10.3871
▁cci	-10.3875
▁chains	-10.3884
▁fishermen	-10.3884
iii	-10.3886
▁attached	-10.389
▁srinagar	-10.3892
▁stadium	-10.3905
▁ireda	-10.3905
▁worked	-10.3906
▁purposes	-10.3909
▁scenario	-10.391
▁caste	-10.3922
▁41	-10.3923
▁sense	-10.3927
▁humanity	-10.3928
▁demonstrated	-10.3929
▁mahakumbh	-10.393
▁23,	-10.3936
▁handle	-10.3945
▁unified	-10.3947
▁currency	-10.3948
▁52	-10.3962
▁26,	-10.3964
▁waqf	-10.3968
▁kharif	-10.3968
▁sunil	-10.3968
▁producers	-10.3972
▁monitored	-10.3978
22	-10.3984
▁peaceful	-10.3986
▁cashless	-10.3992
▁wished	-10.3999
▁tap	-10.3999
▁ensured	-10.4005
▁threats	-10.4009
▁sacrifice	-10.4009
▁literature	-10.4009
▁navies	-10.401
▁accompani	-10.401
▁cochin	-10.4013
▁island	-10.4018
▁lay	-10.4019
30	-10.4035
▁agro	-10.4036
▁manufactured	-10.4036
▁prais	-10.4039
▁tele	-10.4042
▁congratulations	-10.4043
▁renowned	-10.4051
▁27,	-10.4054
▁cop	-10.4059
▁adding	-10.4061
▁festivals	-10.4066
▁metric	-10.4072
q	-10.4074
▁mm	-10.4074
▁european	-10.4078
munications	-10.4081
▁servants	-10.4086
▁screening	-10.4089
▁plus	-10.4091
▁abuse	-10.4092
▁supplies	-10.4094
▁tenure	-10.4094
▁drives	-10.4097
▁costing	-10.4105
▁2020.	-10.4113
▁13,	-10.4113
▁ayurvedic	-10.4115
▁ro	-10.4116
▁mo	-10.4118
▁51	-10.4131
esh	-10.4133
ac	-10.4136
▁appreciation	-10.4136
▁lot	-10.4137
▁residents	-10.4142
▁hal	-10.4143
▁structures	-10.4144
ts	-10.4152
▁hi	-10.4154
▁featur	-10.4159
▁species	-10.4159
▁encourages	-10.416
▁listed	-10.4165
▁joined	-10.4167
▁leave	-10.4168
▁israel	-10.417
▁deal	-10.4174
▁undertakings	-10.4178
-17	-10.418
▁moefcc	-10.4181
▁felicitated	-10.4182
▁flagged	-10.4184
▁guided	-10.4191
▁functions	-10.4191
▁difficult	-10.4198
▁rinl	-10.42
▁postal	-10.4201
▁lwe	-10.4207
▁kanpur	-10.4209
▁iran	-10.4216
▁goel	-10.4223
end	-10.4228
▁nutritional	-10.423
▁outlines	-10.4237
▁grow	-10.4238
24	-10.4239
▁05	-10.424
▁inspiration	-10.4241
▁crisis	-10.4243
▁puducherry	-10.4245
▁legislation	-10.4251
▁coach	-10.426
1,	-10.4261
▁upgrading	-10.4265
ai	-10.4265
▁craft	-10.4269
ministerial	-10.427
▁2021-22	-10.4273
▁6,	-10.4287
▁promoted	-10.4292
▁blending	-10.43
▁band	-10.4301
▁actual	-10.4307
▁tata	-10.4309
▁kendras	-10.4312
▁disabled	-10.4314
▁container	-10.432
▁jagdeep	-10.4329
▁moving	-10.4329
▁restoration	-10.4331
▁licensing	-10.4333
▁scholars	-10.4337
▁finalized	-10.4337
▁performing	-10.4341
▁license	-10.4349
▁let	-10.4352
▁integrate	-10.4354
▁room	-10.4358
▁noida	-10.4359
▁aligned	-10.436
un	-10.4372
▁kala	-10.4377
▁wages	-10.4381
▁deadline	-10.4382
▁rajesh	-10.439
▁kingdom	-10.4394
▁preserving	-10.4395
▁bhamre	-10.4396
▁cruise	-10.4397
wa	-10.4399
▁swami	-10.4402
▁pivotal	-10.4416
▁jain	-10.442
▁y	-10.4431
way	-10.4435
▁idea	-10.4436
▁classical	-10.4439
▁thereafter	-10.4439
▁sms	-10.4442
▁outlined	-10.4448
▁naqvi	-10.446
▁paswan	-10.446
▁56	-10.4464
▁buyers	-10.4466
▁envisages	-10.4467
▁shares	-10.4468
▁sportspersons	-10.4469
▁guide	-10.4471
▁investor	-10.4472
▁id	-10.4474
▁khan	-10.4477
▁minor	-10.4482
28	-10.4485
▁repair	-10.449
▁tribunal	-10.4493
▁surveys	-10.4495
▁incorporate	-10.4504
▁challenging	-10.4504
▁know	-10.4508
▁internationally	-10.4513
▁belonging	-10.4513
▁began	-10.4529
▁shiksha	-10.4529
▁nep	-10.4531
issue	-10.4534
18	-10.4538
▁story	-10.4539
▁mhrd	-10.4548
▁39	-10.4552
23	-10.4552
▁homes	-10.4558
500	-10.4562
▁urge	-10.4564
▁incidents	-10.4568
▁recognizing	-10.457
▁retd	-10.4571
▁cited	-10.4576
▁investigations	-10.4578
▁clearances	-10.458
▁types	-10.4594
▁viii	-10.4609
▁la	-10.4609
▁engine	-10.4614
▁accounting	-10.4629
▁influence	-10.4631
▁toilet	-10.4636
▁arrival	-10.4637
▁fight	-10.4643
▁sustained	-10.4647
people	-10.4648
▁se	-10.4652
▁28,	-10.4652
▁requires	-10.466
▁gange	-10.4664
▁tri	-10.4666
▁azadi	-10.467
▁weight	-10.4672
▁varieties	-10.4682
▁sexual	-10.4682
▁scrap	-10.4687
▁innovators	-10.4689
▁booking	-10.4694
▁exhibitions	-10.4695
▁mar	-10.4705
il	-10.471
▁ghar	-10.4714
▁curb	-10.4727
ne	-10.4731
▁delay	-10.4732
▁chand	-10.4734
▁nps	-10.4735
▁approaches	-10.4736
▁eliminate	-10.4743
▁societies	-10.4753
▁disasters	-10.4755
▁22,	-10.4757
▁producing	-10.4761
▁jubilee	-10.4772
▁aerospace	-10.4772
▁readiness	-10.4774
▁mod	-10.4778
▁facing	-10.4778
▁manufacture	-10.4781
▁burden	-10.4791
▁severe	-10.4792
▁cumulative	-10.4793
▁800	-10.4793
▁seminars	-10.4794
▁pmay	-10.4795
▁forecasting	-10.48
90	-10.4803
▁auto	-10.4807
▁fort	-10.4816
▁exposure	-10.4818
▁sardar	-10.4818
▁8,	-10.4824
▁wealth	-10.4827
▁represents	-10.4835
▁eu	-10.4838
▁confident	-10.484
▁sagarmala	-10.4841
▁accidents	-10.4853
▁pipeline	-10.4855
▁5,	-10.4855
▁african	-10.4855
▁reaffirmed	-10.4856
▁momentum	-10.4863
▁ds	-10.4868
▁ranging	-10.4878
▁decline	-10.488
▁gives	-10.4882
▁contain	-10.4882
▁penalties	-10.4886
▁friday	-10.4886
▁accorded	-10.489
▁clinical	-10.4898
14	-10.49
▁squadron	-10.4909
▁exclusive	-10.4913
▁front	-10.4914
▁bharati	-10.4924
▁hackathon	-10.4927
▁struggle	-10.4929
▁synergy	-10.4932
▁hospitality	-10.4933
▁kishan	-10.4943
▁stalls	-10.4947
▁shgs	-10.495
isation	-10.4951
▁sabka	-10.4952
▁exclud	-10.4953
27	-10.4956
▁rally	-10.4956
80	-10.4961
▁seek	-10.4962
▁inspired	-10.4968
interoperability	-10.4973
he	-10.4973
▁builds	-10.4974
▁santosh	-10.4978
▁named	-10.4979
▁hence	-10.498
▁recoveries	-10.4981
▁sa	-10.4981
▁dispute	-10.4988
▁upgrade	-10.4991
▁2.5	-10.4991
▁employers	-10.4991
▁bills	-10.4991
▁findings	-10.4991
▁responding	-10.4995
▁mnre	-10.5001
▁prioritizing	-10.5001
▁conversion	-10.5001
▁penalty	-10.5001
▁hamid	-10.5002
▁subjects	-10.5018
▁120	-10.502
▁comes	-10.5024
▁premium	-10.5025
▁evacuation	-10.5025
▁portion	-10.5032
▁thoughts	-10.5035
▁normal	-10.504
▁volunteers	-10.5046
▁integral	-10.5048
▁lord	-10.5048
▁ftas	-10.5051
▁induction	-10.5054
▁arrived	-10.5056
▁transferred	-10.5075
▁bangalore	-10.5077
▁hands	-10.5078
▁jayant	-10.5091
▁prayagraj	-10.5095
▁royal	-10.5095
▁exam	-10.5096
▁ak	-10.5099
▁mitigate	-10.5103
no	-10.5115
▁600	-10.5118
▁forensic	-10.5118
os	-10.5118
▁12,	-10.5133
▁harvesting	-10.5134
headed	-10.5137
▁cyclone	-10.5138
▁geographical	-10.5138
ba	-10.5139
▁helped	-10.514
▁elimination	-10.5141
▁olympics	-10.5144
union	-10.5149
▁module	-10.516
▁approvals	-10.5163
▁anurag	-10.5165
▁extent	-10.5165
▁nursing	-10.5165
▁weak	-10.5168
▁blue	-10.5177
▁patient	-10.518
▁night	-10.5183
servicemen	-10.5184
▁statue	-10.5189
▁thematic	-10.5189
▁21,	-10.5196
▁print	-10.5198
▁visual	-10.5199
26	-10.5202
▁meteorological	-10.5202
▁kendra	-10.5208
▁abhiyaan	-10.5212
▁shripad	-10.5219
▁destinations	-10.5221
▁25,	-10.5221
▁om	-10.5223
▁map	-10.5224
▁millet	-10.5232
▁settlement	-10.5236
▁determination	-10.5237
▁2016-17.	-10.5243
▁mmt	-10.5255
▁preventing	-10.5258
ha	-10.5264
13	-10.5264
▁gain	-10.5264
▁namami	-10.5265
▁excellent	-10.5266
hi	-10.5279
▁stretch	-10.5282
▁statistical	-10.5283
ther	-10.5286
▁advisories	-10.5287
▁bidders	-10.5303
▁instead	-10.5307
▁transit	-10.5307
▁dpiit	-10.5307
▁interface	-10.5311
▁bolster	-10.5315
be	-10.5317
▁version	-10.5318
▁landmark	-10.5328
▁applied	-10.5331
▁simplified	-10.5332
president	-10.5334
▁lending	-10.5338
▁cycle	-10.5339
▁introduc	-10.5342
▁merit	-10.535
▁attending	-10.5351
▁complaint	-10.5352
▁hindustan	-10.5353
▁stronger	-10.5355
▁translation	-10.5355
▁risks	-10.5359
▁employ	-10.5361
▁mhz	-10.5362
▁think	-10.5364
▁distance	-10.5366
▁governors	-10.5383
▁timelines	-10.5383
▁bal	-10.5383
har	-10.5386
▁commissioning	-10.5388
▁5.	-10.5392
▁era	-10.5393
▁heat	-10.54
▁fci	-10.5403
▁add	-10.5407
▁2030.	-10.5409
▁reaffirm	-10.5411
▁reliable	-10.5432
▁firms	-10.5432
▁indore	-10.5437
▁deposit	-10.5437
mi	-10.5443
▁veterans	-10.5443
▁sdgs	-10.5448
▁shortage	-10.5451
▁seeds	-10.5451
▁factory	-10.5454
▁md	-10.5455
▁targeting	-10.5456
▁spent	-10.5462
▁australian	-10.5463
▁principle	-10.5467
▁performed	-10.5468
▁bi	-10.5471
▁2015-16.	-10.5476
▁requests	-10.5476
▁reserves	-10.5484
▁balanced	-10.5495
▁alia	-10.5495
▁invitation	-10.55
▁bsnl	-10.55
▁automotive	-10.5504
▁kaushal	-10.5504
▁crafts	-10.5504
▁brief	-10.5522
▁perform	-10.5523
▁victory	-10.5525
▁turnover	-10.5525
▁helping	-10.5526
▁inspiring	-10.5528
▁lac	-10.5529
▁upgraded	-10.5531
▁advanc	-10.5535
raj	-10.5536
▁serves	-10.5537
▁economically	-10.5541
▁potentially	-10.5545
▁represented	-10.5548
specific	-10.5551
▁mandates	-10.5563
▁witness	-10.557
▁links	-10.5572
▁prohibition	-10.5574
▁deficit	-10.5575
▁ultimately	-10.5575
▁preventive	-10.5576
▁06	-10.5576
▁2047.	-10.5578
▁expresses	-10.5578
▁governing	-10.558
▁showcases	-10.5585
▁comprises	-10.5588
▁weeks	-10.5589
▁ravi	-10.5589
▁require	-10.5591
▁philosophy	-10.5598
▁avenues	-10.5615
▁win	-10.5621
▁commonwealth	-10.5622
▁valedictory	-10.5623
▁labor	-10.5623
▁advancement	-10.5623
▁branches	-10.5624
▁circuit	-10.5625
▁manager	-10.563
▁photo	-10.5631
▁applicants	-10.5636
▁cup	-10.5639
▁serious	-10.5644
▁cater	-10.5644
▁07	-10.5645
▁mitra	-10.5647
▁practical	-10.5647
▁morning	-10.5648
▁authentication	-10.5649
sa	-10.5651
▁customers	-10.5652
▁quick	-10.5665
ous	-10.5668
▁02	-10.5669
nt	-10.5671
▁bravery	-10.5672
▁civilian	-10.5675
▁trend	-10.5678
▁uploaded	-10.5679
▁09	-10.568
▁grains	-10.5684
▁hydro	-10.5689
mp	-10.5698
▁deemed	-10.5702
▁suraksha	-10.5705
▁dot	-10.5707
▁76	-10.5708
▁displayed	-10.5712
▁ahir	-10.5713
▁barriers	-10.5714
▁sporting	-10.5715
▁eliminating	-10.5722
▁electrical	-10.5725
▁looking	-10.5726
▁mentions	-10.5728
▁ne	-10.5739
▁decrease	-10.5741
▁hydrocarbon	-10.5748
▁19,	-10.5749
▁battery	-10.5749
▁threat	-10.575
▁crimes	-10.5772
▁save	-10.5774
▁star	-10.5793
▁humanitarian	-10.5797
▁03	-10.5798
▁revision	-10.5798
dr	-10.5808
▁nhm	-10.5808
▁deaths	-10.581
▁boys	-10.5813
▁computer	-10.5818
▁aegis	-10.5822
▁lieutenant	-10.5822
▁pakhwada	-10.5822
▁indira	-10.5822
▁papers	-10.5823
▁email	-10.5825
▁explained	-10.5828
▁friends	-10.5833
▁oman	-10.5836
▁thousands	-10.5838
▁millions	-10.5846
▁massive	-10.5849
▁continuing	-10.5849
▁donation	-10.585
▁issuance	-10.585
-2016	-10.5857
▁2019,	-10.586
▁psbs	-10.5861
▁appris	-10.5862
▁hockey	-10.5873
▁quantity	-10.5873
▁reasons	-10.5874
▁device	-10.5875
▁plays	-10.588
▁ensures	-10.5884
▁tonne	-10.5897
▁peak	-10.5906
▁handled	-10.5907
▁administrations	-10.5915
▁commissioners	-10.592
▁landing	-10.5921
▁waves	-10.5923
▁inaugurating	-10.5923
▁lakshadweep	-10.5923
▁chinese	-10.5923
▁marginalized	-10.5924
▁53	-10.5924
▁begin	-10.5926
cs	-10.593
▁graduate	-10.593
▁continuously	-10.5933
▁pragati	-10.5948
▁choice	-10.5951
▁18,	-10.5962
uk	-10.597
▁grief	-10.5974
▁vajpayee	-10.5974
▁shipbuilding	-10.5976
operation	-10.5978
▁instruments	-10.5983
▁affect	-10.5986
▁pib	-10.5986
▁chauhan	-10.6
▁silk	-10.6
▁viability	-10.6
▁presided	-10.6002
▁cells	-10.6002
▁shillong	-10.6003
▁advantage	-10.6005
▁folk	-10.6008
▁defined	-10.6022
▁compassion	-10.6025
▁1961	-10.6027
▁24,	-10.604
▁prizes	-10.6045
di	-10.6045
▁50,000	-10.6049
▁authorized	-10.6053
▁speaker	-10.6056
▁effects	-10.6059
▁too	-10.606
ek	-10.606
▁constitutional	-10.606
▁judge	-10.6074
▁securing	-10.6077
▁voice	-10.6087
ory	-10.6089
▁facilitates	-10.609
▁valley	-10.6103
▁rare	-10.6104
▁unesco	-10.6105
▁formulated	-10.6106
▁enrolment	-10.611
▁08	-10.6118
▁stop	-10.6122
gov	-10.6127
▁netaji	-10.6129
▁cybersecurity	-10.6129
▁gandhinagar	-10.613
▁divyangjan	-10.6133
▁pacific	-10.6141
▁dal	-10.6153
▁deceased	-10.6155
▁nmcg	-10.6155
line	-10.6156
▁bound	-10.6162
▁sensitive	-10.6168
▁conferences	-10.6174
▁mi	-10.6176
▁window	-10.6179
▁minutes	-10.6179
▁variety	-10.6181
▁true	-10.6185
▁endeavour	-10.6186
▁unveiled	-10.6187
▁arrivals	-10.6192
3,000	-10.6196
iv	-10.6196
▁terminals	-10.6203
▁20,	-10.6206
▁augment	-10.6207
▁keen	-10.6208
▁ix	-10.621
▁floods	-10.6213
▁68	-10.6219
▁foodgrains	-10.6219
▁volume	-10.6221
▁formulation	-10.6224
▁bose	-10.6234
▁incorporated	-10.6236
▁disbursement	-10.6238
▁reserved	-10.6242
▁2020,	-10.6248
▁ip	-10.6253
ps	-10.6257
▁procured	-10.6262
▁quiz	-10.6263
▁employee	-10.6269
▁appeal	-10.627
▁admission	-10.627
▁receipt	-10.6271
▁entered	-10.6272
▁aai	-10.6279
▁semi	-10.6281
▁capacities	-10.6286
▁defecation	-10.6289
▁letters	-10.6291
▁registering	-10.6292
▁vidyalaya	-10.6299
▁04	-10.6301
▁asi	-10.6303
▁fake	-10.6312
▁ventures	-10.6314
▁siddha	-10.6319
ja	-10.6322
go	-10.6327
▁disciplines	-10.6329
▁borders	-10.6331
▁62	-10.6335
▁deendayal	-10.6338
▁restructuring	-10.6338
▁capable	-10.6339
▁ni	-10.6342
▁grade	-10.6351
▁bar	-10.6351
▁nano	-10.6364
▁symposium	-10.6365
▁demise	-10.6365
▁29,	-10.6369
▁dehradun	-10.6374
▁metal	-10.6375
nam	-10.6377
▁forests	-10.6383
▁equivalent	-10.6391
me	-10.6392
▁72	-10.6395
▁augmentation	-10.6396
▁rating	-10.64
▁origin	-10.6402
▁subscribers	-10.6406
▁news	-10.641
▁58	-10.6416
▁animals	-10.6417
▁inflation	-10.6418
▁ncert	-10.6425
▁cm	-10.6443
▁wcd	-10.6445
▁2008	-10.645
▁aware	-10.645
▁interacting	-10.6451
▁exemption	-10.6453
▁ticket	-10.6458
aid	-10.6466
▁refund	-10.6471
▁abdul	-10.6471
▁yamuna	-10.6472
▁centenary	-10.6472
▁hundred	-10.6472
▁adventure	-10.6472
▁architecture	-10.6472
▁keynote	-10.6472
▁removal	-10.6473
pm	-10.6476
▁inclusivity	-10.6477
▁treated	-10.6478
▁2010	-10.6479
▁weavers	-10.648
37	-10.6481
▁ethical	-10.6488
▁protected	-10.6493
▁continuation	-10.6499
▁commanders	-10.6503
▁proposes	-10.6504
ch	-10.6505
▁garden	-10.6507
▁minds	-10.6515
gratia	-10.6526
▁bulk	-10.6526
▁ammunition	-10.6526
▁exemplary	-10.6526
▁resolving	-10.6526
▁mospi	-10.6526
▁updates	-10.6531
▁allowance	-10.6535
▁cum	-10.6536
▁accountants	-10.6537
▁representative	-10.654
▁troops	-10.6542
month	-10.6543
▁phased	-10.6552
▁processed	-10.6552
▁ficci	-10.6553
▁flexibility	-10.6553
▁petrol	-10.6553
▁redevelopment	-10.6554
▁isa	-10.6555
▁pressure	-10.656
▁managed	-10.6572
▁rio	-10.6572
▁kendriya	-10.6575
▁basin	-10.6579
▁mohua	-10.658
post	-10.6583
▁provident	-10.6586
▁fighters	-10.6588
▁joining	-10.6596
▁67	-10.6601
▁impetus	-10.6607
▁lng	-10.6607
▁leather	-10.661
▁emerged	-10.6612
ant	-10.6615
▁ab	-10.6615
▁semiconductor	-10.6617
▁pledged	-10.6618
▁specially	-10.6621
▁proceedings	-10.6622
▁councils	-10.6627
▁judges	-10.663
▁twenty	-10.6634
▁aquaculture	-10.6634
▁summer	-10.6634
▁tender	-10.6647
▁worker	-10.6648
▁discipline	-10.6658
▁irctc	-10.6661
▁kept	-10.6662
▁dev	-10.6669
▁retirement	-10.6671
▁shivir	-10.6671
▁accommodation	-10.6671
▁workplace	-10.6672
▁prompt	-10.6685
▁bin	-10.6686
▁enthusiasm	-10.6689
▁packaging	-10.6689
▁upgrades	-10.6697
▁confirmed	-10.6699
terrorism	-10.6699
▁popular	-10.6715
▁teachings	-10.6718
▁library	-10.6721
▁trial	-10.6727
▁shipyard	-10.6727
▁comprise	-10.6727
▁push	-10.6749
▁issuing	-10.6763
▁refunds	-10.6763
▁trans	-10.677
▁pass	-10.6772
▁adaptation	-10.6772
▁rather	-10.6773
▁preliminary	-10.6773
▁stake	-10.6776
▁surplus	-10.6776
▁mrs	-10.6783
▁9,	-10.6784
▁widespread	-10.6799
▁crpf	-10.68
▁dayal	-10.6809
▁scst	-10.681
▁arrangement	-10.6811
▁recommendation	-10.6816
off	-10.6818
id	-10.6821
▁constitute	-10.6826
▁accelerating	-10.6827
▁radhakrishnan	-10.6827
▁rapidly	-10.6835
▁convert	-10.684
▁demonstrations	-10.6842
tourist	-10.6849
▁mann	-10.685
▁inform	-10.685
▁frameworks	-10.685
.00	-10.6853
▁reception	-10.6855
zubin	-10.6855
▁prosperous	-10.6855
▁fssai	-10.6855
chair	-10.6861
▁bhubaneswar	-10.6861
▁thank	-10.6865
▁van	-10.6866
▁conferencing	-10.6867
75	-10.6877
▁creativity	-10.6883
▁strive	-10.6883
▁attendees	-10.6883
▁weapon	-10.6886
▁seized	-10.6886
▁restrictions	-10.6888
▁overcome	-10.6888
▁2013.	-10.6889
kg	-10.6894
▁collaborating	-10.6911
▁entertainment	-10.6911
▁entity	-10.6911
▁environmentally	-10.6911
▁nam	-10.6912
▁brings	-10.6914
▁gehlot	-10.6915
▁handed	-10.6917
▁hubs	-10.6918
▁onboard	-10.6921
▁tunnel	-10.6926
ir	-10.6934
▁urgent	-10.6936
▁football	-10.6939
▁mortality	-10.6939
▁geological	-10.6939
▁impressive	-10.6939
▁charging	-10.6945
▁bharatiya	-10.6945
▁populations	-10.6946
▁66	-10.6949
▁golden	-10.695
▁74	-10.6955
▁resolved	-10.6956
▁ad	-10.6956
▁pmmsy	-10.6967
▁dose	-10.6968
▁rain	-10.6973
▁morth	-10.6973
▁questions	-10.6976
▁moment	-10.698
▁yuva	-10.6981
▁stamp	-10.6982
▁lighting	-10.6988
▁preparing	-10.6995
▁often	-10.6999
▁engagements	-10.7001
▁ib	-10.7002
▁progressive	-10.7006
▁ceiling	-10.7009
▁fruits	-10.7014
▁whe	-10.7019
▁lease	-10.702
▁attempt	-10.7021
▁composite	-10.7024
▁20,000	-10.7024
▁deposits	-10.7026
▁disbursed	-10.7029
sk	-10.7032
▁veer	-10.7033
▁kashi	-10.7036
▁refinery	-10.7038
use	-10.7043
▁centralized	-10.7044
36	-10.7048
▁2017-18.	-10.7053
▁stresses	-10.7055
▁temporary	-10.7055
▁scientist	-10.706
▁57	-10.7066
▁secured	-10.7067
▁discharge	-10.7076
▁incubation	-10.708
▁membership	-10.7082
▁indians	-10.7084
▁sbm	-10.7085
▁uzbekistan	-10.7087
▁closer	-10.709
▁95	-10.7094
▁middle	-10.7097
edge	-10.7099
▁con	-10.71
▁deliberate	-10.7103
▁fortnight	-10.7105
effective	-10.7106
▁earnings	-10.7107
▁lists	-10.7109
▁nabard	-10.7109
▁monuments	-10.7112
▁greet	-10.7118
ies	-10.7119
▁terrorists	-10.7121
▁unwavering	-10.7138
▁mygov	-10.7138
▁ek	-10.7139
ud	-10.7141
▁advertisements	-10.7143
▁captive	-10.7144
▁load	-10.7145
▁2003	-10.7152
35	-10.7155
quality	-10.7159
▁inspections	-10.7162
▁concession	-10.7162
▁permitted	-10.7167
▁psu	-10.7168
▁avail	-10.7171
▁kin	-10.7172
▁complimented	-10.7173
▁forecast	-10.7176
▁thanks	-10.7185
▁61	-10.7188
▁simultaneously	-10.7196
▁underlined	-10.7197
governmental	-10.7198
▁jurisdiction	-10.7214
200	-10.7224
▁renewed	-10.7226
▁recommend	-10.7227
▁cbse	-10.723
▁modules	-10.723
▁pon	-10.7246
▁organ	-10.7248
▁king	-10.7249
▁closed	-10.725
disciplinary	-10.7254
▁assistive	-10.7255
▁pandey	-10.7255
▁duration	-10.7256
▁radar	-10.7258
▁monetar	-10.7259
▁ceos	-10.7262
ve	-10.7263
▁submarine	-10.7263
▁2047	-10.7263
▁gift	-10.7264
▁organize	-10.7264
▁mainly	-10.7268
2,000	-10.7278
▁drones	-10.7279
▁sensing	-10.7282
▁globe	-10.7284
▁negative	-10.7285
▁madras	-10.7286
▁64	-10.7299
▁figure	-10.7299
▁awas	-10.7299
▁hostel	-10.7303
▁aatmanirbhar	-10.7306
▁approx	-10.7311
▁computing	-10.7311
▁branch	-10.7314
▁mld	-10.7314
▁trees	-10.7315
▁bro	-10.732
▁sets	-10.7331
▁acknowledge	-10.7334
▁explored	-10.7334
▁54	-10.7338
member	-10.734
▁bay	-10.7347
99	-10.7368
▁concluding	-10.737
felt	-10.7371
▁wage	-10.7377
40	-10.7377
▁uday	-10.738
▁onwards	-10.7381
▁conflict	-10.739
▁ideals	-10.7392
▁love	-10.7395
chief	-10.7401
▁deploy	-10.7417
▁fraud	-10.7429
▁commencement	-10.7429
▁85	-10.7431
▁phone	-10.7431
▁2021,	-10.7437
▁2009	-10.7445
▁hardeep	-10.7459
▁modified	-10.7459
▁contest	-10.7461
▁worldwide	-10.7462
78	-10.7467
▁estimate	-10.7472
ally	-10.7475
old	-10.7476
▁atmanirbhar	-10.7476
▁dream	-10.7478
▁patrol	-10.7481
▁pursue	-10.7482
▁weapons	-10.7485
▁attendance	-10.7489
▁diversification	-10.7491
▁rooftop	-10.7518
▁deepen	-10.752
▁genetic	-10.7528
▁chapter	-10.7538
ol	-10.7538
▁symbol	-10.7546
▁congestion	-10.7548
▁arbitration	-10.7548
▁hansraj	-10.7548
▁groundwater	-10.7548
▁meritorious	-10.755
▁acceptance	-10.7551
▁roundtable	-10.7568
▁expressway	-10.757
▁preserve	-10.7571
▁trillion	-10.7578
▁dri	-10.7578
▁unorganized	-10.7578
▁0	-10.7579
▁pandit	-10.758
▁agents	-10.7592
▁adviser	-10.7601
▁read	-10.7602
air	-10.7632
▁conventional	-10.7636
▁cbi	-10.7638
▁relevance	-10.7638
▁subsidiary	-10.7638
▁unprecedented	-10.7638
▁gallantry	-10.7638
60	-10.764
▁evasion	-10.7642
▁expenses	-10.7651
▁69	-10.7652
▁italy	-10.7654
▁liquid	-10.7658
▁fellow	-10.7659
▁mentioning	-10.7662
▁rti	-10.7662
▁coconut	-10.7668
▁fifth	-10.7668
▁pilgrimage	-10.7668
▁2001	-10.7673
▁quarterly	-10.7675
▁experienced	-10.7684
29	-10.7686
▁fm	-10.7691
▁calling	-10.7691
▁clarifie	-10.7692
▁kalam	-10.7696
▁did	-10.7697
▁resident	-10.7698
▁testament	-10.7698
▁saarc	-10.7698
▁sidelines	-10.7698
▁kenya	-10.7699
▁cooperatives	-10.7703
▁alone	-10.7707
▁nic	-10.7709
▁cut	-10.7712
▁retain	-10.7712
▁invite	-10.7716
▁san	-10.7718
less	-10.7718
▁diamond	-10.7721
▁grown	-10.7724
▁helps	-10.7726
▁apex	-10.7729
▁copper	-10.7729
▁websites	-10.7735
-30	-10.7739
▁certified	-10.7744
▁guests	-10.7749
▁tournament	-10.7751
▁linking	-10.7756
▁plenary	-10.7759
▁accreditation	-10.7759
▁consensus	-10.7759
▁cisf	-10.7759
▁uma	-10.7761
50,000	-10.7762
33	-10.7762
pronged	-10.7788
▁rathore	-10.779
▁paddy	-10.779
▁tolerance	-10.7792
▁consistent	-10.7794
▁operated	-10.7819
▁renewal	-10.782
▁bankruptcy	-10.782
▁biggest	-10.782
▁cpwd	-10.7821
▁samples	-10.7824
▁nominated	-10.7828
pa	-10.784
▁remained	-10.7845
▁intensive	-10.7848
▁sam	-10.785
▁names	-10.7853
▁standardization	-10.7854
▁never	-10.7854
▁replacement	-10.7855
ised	-10.7862
▁commitments	-10.7863
▁deeply	-10.7866
▁coaching	-10.7871
▁flights	-10.7875
▁hotel	-10.7876
▁nominations	-10.7879
▁akademi	-10.7882
▁quota	-10.7883
▁ssb	-10.7884
▁domestically	-10.7885
▁cleaner	-10.7885
▁satya	-10.7885
▁utility	-10.7886
government	-10.7889
▁male	-10.7897
▁dec	-10.7902
▁offences	-10.7912
▁apparel	-10.7913
▁aushadhi	-10.7913
▁auspicious	-10.7913
▁dashboard	-10.7913
▁advice	-10.7913
▁fitness	-10.7913
▁2013,	-10.7917
▁devotees	-10.7919
▁safai	-10.7919
▁informal	-10.7919
▁analytics	-10.792
▁1500	-10.7921
inviting	-10.7924
▁2004	-10.7927
▁educate	-10.7943
▁scindia	-10.7947
▁arogya	-10.7948
▁incentivize	-10.795
▁accept	-10.7954
▁ph	-10.7963
▁strengths	-10.7963
ter	-10.7968
▁logo	-10.7971
jan	-10.7972
▁pursuing	-10.7975
▁demographic	-10.7975
▁entries	-10.7975
viksit	-10.7986
▁file	-10.7988
▁planting	-10.7994
▁valid	-10.7998
▁hq	-10.8006
▁ccea	-10.8007
▁town	-10.8009
▁enrolled	-10.8009
▁revamped	-10.801
▁allahabad	-10.8016
▁2025-26	-10.8019
▁tier	-10.8022
▁match	-10.8024
iya	-10.8035
▁sm	-10.8037
▁examine	-10.8046
▁fill	-10.8049
▁game	-10.805
▁sanction	-10.8051
▁gps	-10.8064
▁rupee	-10.8065
▁desire	-10.8065
▁auditorium	-10.8069
came	-10.8074
▁cloud	-10.8074
▁hearing	-10.8076
▁martyrs	-10.8078
▁productive	-10.8079
▁92	-10.8093
▁125	-10.8096
▁broadcast	-10.8097
▁cinema	-10.8101
▁mis	-10.8101
▁prabhakar	-10.8101
▁vande	-10.8102
ram	-10.8102
▁reality	-10.8103
▁tiranga	-10.8106
▁archives	-10.8116
▁parking	-10.8116
▁battle	-10.812
▁ips	-10.8127
▁iwai	-10.8132
▁salient	-10.8132
▁icmr	-10.8133
▁pharma	-10.8138
▁safeguard	-10.8157
38	-10.8162
▁chouhan	-10.8164
▁contrast	-10.8164
▁chairs	-10.8165
▁sample	-10.8165
▁flora	-10.8165
▁virtually	-10.8171
▁stable	-10.8173
▁78	-10.8177
elecommunication	-10.8178
▁referr	-10.8179
▁concessions	-10.8179
▁practitioners	-10.8182
▁try	-10.8182
▁700	-10.8187
▁want	-10.819
▁bridging	-10.8196
▁woman	-10.8202
▁hostels	-10.8209
standing	-10.8211
bi	-10.8212
▁sold	-10.8215
▁strict	-10.8221
▁rai	-10.8222
▁welcoming	-10.8228
▁pays	-10.8229
▁veterinary	-10.8232
▁nsdc	-10.8232
▁marg	-10.824
▁soft	-10.8245
▁sacrifices	-10.8251
▁monday	-10.8257
▁choubey	-10.826
▁meghwal	-10.826
▁uidai	-10.826
▁pslv	-10.826
▁prosecution	-10.826
▁fellowship	-10.8264
▁msde	-10.8264
▁qualification	-10.8269
▁59	-10.828
with	-10.8283
▁firm	-10.8284
▁agra	-10.8288
▁voter	-10.8292
▁repayment	-10.8293
▁earmarked	-10.8293
34	-10.8297
▁imphal	-10.8297
sc	-10.8299
▁complet	-10.8301
▁kits	-10.8304
▁cricket	-10.8305
fa	-10.8307
▁bs	-10.8313
▁iec	-10.8315
▁liability	-10.8325
▁obtained	-10.8325
▁makes	-10.8326
▁alternate	-10.8329
▁tanzania	-10.833
▁deen	-10.8343
▁ev	-10.8348
con	-10.8355
▁tune	-10.8363
▁assessed	-10.8364
▁upper	-10.8364
▁swaraj	-10.8366
war	-10.8367
▁900	-10.8376
▁xii	-10.8381
▁wi	-10.8381
▁circumstances	-10.839
structed	-10.8401
▁99	-10.8416
▁dignity	-10.8422
▁yesso	-10.8422
▁pendency	-10.8422
▁remarked	-10.8423
▁engineer	-10.8423
ap	-10.8435
▁elected	-10.8435
nagar	-10.8441
▁simple	-10.8452
▁leh	-10.8454
▁archaeological	-10.8455
▁thrust	-10.8455
▁annexure	-10.8455
▁gangaram	-10.8456
▁haat	-10.8457
▁outlets	-10.8476
▁faith	-10.848
▁chancellor	-10.8481
▁pregnant	-10.8487
▁german	-10.8489
▁2,000	-10.8489
▁voters	-10.849
▁chartered	-10.8498
▁junior	-10.8499
▁proof	-10.8499
▁gauge	-10.851
▁introduce	-10.852
▁coas	-10.8522
▁icds	-10.8525
▁temperature	-10.8527
▁karmayogi	-10.8529
▁dependence	-10.853
▁writing	-10.8536
▁distress	-10.8537
▁delayed	-10.8547
▁bachao	-10.8553
▁alignment	-10.856
▁omcs	-10.8561
▁imposed	-10.8561
▁wish	-10.8562
▁image	-10.8567
▁acc	-10.8569
▁pg	-10.857
pl	-10.8582
ut	-10.8584
van	-10.8584
▁terrain	-10.8586
▁diagnostic	-10.8587
▁samman	-10.8587
▁executed	-10.8595
▁filling	-10.8598
employment	-10.8605
▁ranchi	-10.8605
bhai	-10.8606
▁darshan	-10.8609
▁ujjwala	-10.8618
▁organising	-10.862
▁facebook	-10.862
▁interim	-10.8622
im	-10.8624
▁kalyan	-10.8626
▁arising	-10.863
ad	-10.863
▁degrees	-10.8632
▁birthday	-10.8633
help	-10.8641
▁commence	-10.8651
▁federalism	-10.8653
▁mile	-10.8659
▁sum	-10.866
▁zoo	-10.8662
▁mca	-10.8663
▁drivers	-10.8669
▁extra	-10.8678
▁entrepreneurial	-10.8686
▁upi	-10.8686
kuber	-10.8686
▁biomass	-10.8686
▁ambassadors	-10.8688
▁qualifications	-10.8689
▁6.	-10.8689
▁clarified	-10.8693
▁nec	-10.8697
▁ago	-10.8704
mo	-10.8706
bound	-10.871
▁receipts	-10.8712
▁73	-10.8716
▁possibility	-10.872
▁avsm	-10.872
▁mobilization	-10.872
oriented	-10.872
▁greenfield	-10.8721
▁trainers	-10.8724
▁yojna	-10.8726
▁clause	-10.8726
▁revealed	-10.8732
ial	-10.8738
▁audits	-10.8738
▁xi	-10.8741
▁iim	-10.8751
▁buffer	-10.8754
▁broadband	-10.8754
▁surat	-10.8754
▁policymakers	-10.8755
▁gs	-10.8755
▁useful	-10.8756
do	-10.8757
▁viable	-10.8761
▁whereas	-10.8761
64	-10.8762
op	-10.8768
▁pray	-10.8778
▁rolling	-10.8778
▁transcript	-10.8787
▁corpus	-10.8787
▁employability	-10.8788
▁exit	-10.8789
▁championship	-10.879
▁mainstream	-10.8794
▁differently	-10.8798
▁milestones	-10.8802
cr	-10.8805
▁break	-10.8806
▁nm	-10.8813
▁conclusion	-10.8821
▁gohain	-10.8821
▁square	-10.8821
▁pattern	-10.8824
▁notable	-10.8825
▁qatar	-10.883
▁247	-10.8831
▁streamlined	-10.8833
tra	-10.8837
▁joy	-10.884
▁da	-10.8841
▁esi	-10.8848
▁2017-18,	-10.8849
lo	-10.8853
▁harnessing	-10.8854
▁accuracy	-10.8855
▁aicte	-10.8855
▁nmdc	-10.8855
▁regiment	-10.8857
▁pmksy	-10.8866
▁impacts	-10.887
▁remembered	-10.8871
speed	-10.8881
▁63	-10.8882
▁earliest	-10.8889
▁supplied	-10.8889
▁cctv	-10.8889
▁attacks	-10.8891
▁concrete	-10.8892
▁nidhi	-10.8902
▁oriented	-10.8902
dc	-10.8903
▁heights	-10.8907
▁enter	-10.8909
▁publicity	-10.8909
▁traders	-10.8911
new	-10.8912
waste	-10.8916
▁america	-10.892
▁drawing	-10.8923
▁3000	-10.8923
▁incurred	-10.8924
▁vilas	-10.8924
▁decreased	-10.8932
▁vary	-10.8934
▁tv	-10.8936
▁sankalp	-10.8936
▁submarines	-10.8938
▁violations	-10.8958
▁generic	-10.8958
▁makers	-10.896
bir	-10.8964
ci	-10.8965
▁deliberated	-10.8968
▁ratna	-10.8978
lane	-10.8984
▁sanskrit	-10.899
▁rajen	-10.8995
▁migration	-10.8997
▁mills	-10.9001
76	-10.9005
▁accelerated	-10.9005
▁exchanged	-10.9006
▁ko	-10.9011
▁owned	-10.9014
▁dealing	-10.9015
▁oilseeds	-10.9015
▁fpos	-10.9018
▁appeals	-10.9019
office	-10.902
▁afforestation	-10.9027
▁rupala	-10.9027
44	-10.9029
▁segment	-10.9032
▁cadet	-10.9032
▁referencing	-10.9033
▁attain	-10.9046
▁bands	-10.9049
45	-10.9057
▁jewellery	-10.9062
▁assigned	-10.9067
for	-10.9077
▁intend	-10.9081
tic	-10.9083
ik	-10.9085
▁assisted	-10.9086
▁adverse	-10.9093
we	-10.9094
▁subvention	-10.9097
▁white	-10.9097
▁icai	-10.9098
▁moreover	-10.9102
▁personality	-10.9108
▁subsidized	-10.9108
ab	-10.9116
▁nss	-10.9128
▁fundamental	-10.9131
▁entitle	-10.9131
▁competent	-10.9132
▁culminat	-10.9132
service	-10.9134
▁politics	-10.9136
▁narcotics	-10.9141
em	-10.9142
▁pillars	-10.9153
▁nigeria	-10.9155
tu	-10.9166
▁wrote	-10.9167
▁sushri	-10.9167
▁umbrella	-10.9169
▁steering	-10.9172
▁vegetables	-10.9172
▁validation	-10.9173
▁sar	-10.9188
▁designs	-10.9193
▁remove	-10.9197
▁demonstrating	-10.9202
▁evolution	-10.9209
▁2020-21	-10.9211
▁bhatt	-10.9221
▁patent	-10.9228
▁modernize	-10.9232
▁watch	-10.9233
▁valued	-10.9235
▁felt	-10.9236
▁consent	-10.9237
▁convenience	-10.9237
▁audio	-10.9238
▁aged	-10.9238
▁spann	-10.9241
▁rounds	-10.9243
▁pwds	-10.9251
▁transfers	-10.9251
▁bhupend	-10.9253
▁capfs	-10.9253
▁span	-10.9253
▁fine	-10.9253
▁nsfs	-10.926
▁ncs	-10.9261
mann	-10.9261
ga	-10.9272
▁told	-10.9276
ism	-10.9276
▁dry	-10.9284
▁investing	-10.9284
▁federations	-10.9285
▁drills	-10.9291
▁rm	-10.9297
▁nia	-10.9304
▁2021.	-10.9306
▁intent	-10.9307
▁pleasure	-10.9308
▁repository	-10.9308
ki	-10.9308
▁domains	-10.9309
08	-10.931
▁gsi	-10.9313
▁surrounding	-10.9318
▁aero	-10.9321
ot	-10.9342
▁releases	-10.9342
▁polio	-10.9344
▁minimize	-10.9344
▁88	-10.935
▁centric	-10.9351
ll	-10.9359
▁digitally	-10.9364
▁gi	-10.9366
▁constructing	-10.9371
▁represent	-10.9373
?	-10.9376
▁meaningful	-10.9376
▁constant	-10.9376
▁trophy	-10.938
▁cpcb	-10.9381
95	-10.9398
▁ranks	-10.9409
shri	-10.9412
▁articles	-10.9413
january	-10.9415
▁harassment	-10.9416
▁elderly	-10.9416
▁rec	-10.942
▁gis	-10.9422
▁disposed	-10.9424
▁itbp	-10.9425
▁placement	-10.9428
▁visionary	-10.9429
▁exceed	-10.9437
▁remember	-10.9441
▁amending	-10.9444
▁jai	-10.9446
▁coffee	-10.9452
▁sugarcane	-10.9452
▁patil	-10.9452
▁bcm	-10.9455
▁shape	-10.9462
▁harbour	-10.9464
nath	-10.9476
▁sustain	-10.9478
ana	-10.9484
▁swift	-10.9485
▁mix	-10.9486
▁grac	-10.9488
▁preced	-10.9489
▁residence	-10.949
▁monitors	-10.949
▁announcements	-10.9492
▁130	-10.9496
▁checks	-10.95
▁draw	-10.9501
▁ipr	-10.9502
ns	-10.9509
ry	-10.9518
▁thinking	-10.952
▁homeopathy	-10.9525
▁abbas	-10.9525
▁sewerage	-10.9528
et	-10.9535
▁sk	-10.9539
▁assisting	-10.954
▁greets	-10.9541
▁commissions	-10.9552
▁simplification	-10.9561
▁trifed	-10.9561
▁functionaries	-10.9561
▁instrumental	-10.9563
▁failure	-10.9571
▁optical	-10.9574
▁discussing	-10.9575
▁spot	-10.9583
ee	-10.9585
▁wise	-10.959
▁ac	-10.9593
▁tremendous	-10.9594
▁cattle	-10.9598
▁fraternity	-10.9598
▁anna	-10.9599
▁oct	-10.96
▁sound	-10.9611
▁substantially	-10.9611
▁episode	-10.9615
▁ssa	-10.9621
▁misuse	-10.9629
ability	-10.9629
▁preparations	-10.9631
izing	-10.9633
▁shekhawat	-10.9634
▁maternal	-10.9634
▁developers	-10.9635
▁leads	-10.964
ang	-10.9646
▁vp	-10.9649
▁2014-15.	-10.9652
▁permission	-10.9652
▁sun	-10.966
▁sbi	-10.9662
▁71	-10.9664
▁selling	-10.9669
▁allotment	-10.9671
▁doordarshan	-10.9671
▁malnutrition	-10.9671
▁gangwar	-10.9671
▁enrollment	-10.9671
▁stood	-10.9671
▁largely	-10.9674
▁mu	-10.9675
garh	-10.9686
▁longer	-10.9687
▁filled	-10.9699
▁planet	-10.9702
▁indicates	-10.9702
▁gazette	-10.9707
▁padhao	-10.9708
▁pmnrf	-10.9708
▁tertiary	-10.9708
▁fasal	-10.9709
▁difficulties	-10.9709
▁munda	-10.9709
▁cwg	-10.971
▁enacted	-10.9712
▁rajendra	-10.9715
▁77	-10.9717
▁sixth	-10.9719
▁carrier	-10.9721
▁appealed	-10.9731
▁touch	-10.9736
▁coordinating	-10.9746
▁aerial	-10.9746
▁tank	-10.9748
rc	-10.9751
▁classification	-10.9753
▁supplement	-10.9756
▁veteran	-10.9758
42	-10.9765
▁drop	-10.9771
▁ilo	-10.978
▁sir	-10.9783
▁enduring	-10.9783
▁wherever	-10.9784
ag	-10.9785
▁copy	-10.9787
▁kuwait	-10.9787
▁avoidance	-10.9788
▁dues	-10.9789
▁discovery	-10.9789
▁pa	-10.9791
▁fit	-10.9791
▁observation	-10.9794
▁csc	-10.9799
▁2019-20	-10.9806
▁pv	-10.9811
▁winter	-10.9821
▁treaty	-10.9822
▁electronically	-10.9822
border	-10.9825
▁kargil	-10.9826
▁netherlands	-10.9831
▁situations	-10.9835
▁dpr	-10.985
▁embrace	-10.9851
▁recall	-10.9855
▁composition	-10.9858
▁parshottam	-10.9858
▁pmgsy	-10.9858
▁raipur	-10.9859
▁cbic	-10.9861
▁smaller	-10.9862
harvest	-10.9863
▁enables	-10.9864
▁1200	-10.9864
▁venue	-10.9872
▁sand	-10.9872
rao	-10.9873
ce	-10.9873
▁dispatch	-10.9878
▁constraints	-10.9878
▁endeavours	-10.9888
▁nationally	-10.9892
▁constituency	-10.9896
▁sebi	-10.9896
▁epf	-10.9897
▁pathak	-10.9898
▁upadhyaya	-10.99
▁drawn	-10.99
conic	-10.99
93	-10.9901
▁egypt	-10.9902
▁advocates	-10.9902
▁documentation	-10.9903
ani	-10.9912
▁fairs	-10.9916
▁pillar	-10.9924
ors	-10.9934
▁gramin	-10.9934
▁convened	-10.9935
▁diploma	-10.9937
▁structural	-10.9938
▁allocations	-10.9939
▁tackle	-10.9939
▁majority	-10.9941
▁captain	-10.9948
ex	-10.9951
▁sure	-10.9954
▁moes	-10.9955
▁pmegp	-10.9972
▁methodology	-10.9972
▁concessional	-10.9975
▁5000	-10.9976
▁pralhad	-10.9978
▁bags	-10.9978
▁inspected	-10.9978
▁capture	-10.998
▁scaling	-10.998
▁controller	-10.9986
▁battalion	-10.9987
▁sole	-10.9992
▁3,000	-10.9996
31	-10.9997
▁stores	-11.0004
▁outlook	-11.001
▁commemoration	-11.0013
▁commendable	-11.0014
▁fall	-11.0015
▁indicated	-11.0022
▁strides	-11.0027
▁remov	-11.0036
▁stem	-11.004
▁civic	-11.0048
▁sewa	-11.0048
▁beach	-11.006
▁cars	-11.0067
39	-11.007
03	-11.0078
▁alert	-11.0086
▁extremism	-11.0086
▁inquiry	-11.0086
▁telephone	-11.0087
▁modernisation	-11.0089
dicating	-11.009
▁sensors	-11.0091
▁bpl	-11.0091
her	-11.0091
▁vs	-11.0093
72	-11.0095
central	-11.0096
▁2016-17,	-11.0098
dp	-11.0103
▁ranjan	-11.0105
▁discoms	-11.0106
▁lankan	-11.0106
cl	-11.0109
▁maa	-11.0114
▁motivate	-11.0119
▁discusse	-11.0122
▁examinations	-11.0123
▁guiding	-11.0125
▁naturopathy	-11.0125
▁depwd	-11.0125
nic	-11.0133
▁shifting	-11.0133
zero	-11.0135
▁orbit	-11.0136
▁kaal	-11.0137
▁2002	-11.0139
▁tested	-11.0141
48	-11.0141
▁1,000	-11.0142
▁containing	-11.0146
▁licenses	-11.0147
▁tru	-11.0152
▁buses	-11.0157
▁promotional	-11.0158
▁queries	-11.0164
▁gallery	-11.0164
▁cpgrams	-11.0168
▁exhorted	-11.0168
▁dock	-11.0168
▁maternity	-11.0169
▁vaishnaw	-11.0169
▁ownership	-11.0169
▁tur	-11.0173
▁tejas	-11.0174
▁burning	-11.0175
▁granting	-11.0183
▁contributes	-11.0187
▁hoped	-11.0189
▁finding	-11.0193
▁talented	-11.0196
▁mini	-11.0201
▁autonomy	-11.0203
▁wisdom	-11.0203
▁dgca	-11.0203
▁hari	-11.0204
ling	-11.0207
▁acquired	-11.021
▁...	-11.0212
▁1986	-11.0213
▁buy	-11.0213
si	-11.0218
▁ration	-11.0219
▁completely	-11.0221
▁outlin	-11.0221
▁fly	-11.0222
▁breeding	-11.0224
▁350	-11.0224
▁benchmark	-11.0225
▁exemptions	-11.023
▁pave	-11.0241
▁compulsory	-11.0242
▁british	-11.0242
▁confederation	-11.0242
virendra	-11.0244
▁terror	-11.0252
▁earned	-11.0253
▁forecasts	-11.0259
▁sex	-11.026
▁subscriber	-11.026
ari	-11.0264
▁corporations	-11.0265
▁segments	-11.0276
wan	-11.028
rk	-11.0281
▁ec	-11.0281
▁injuries	-11.0281
▁ratification	-11.0281
▁utilities	-11.0281
▁strongly	-11.0282
▁safeguarding	-11.0285
▁mongolia	-11.0287
▁gati	-11.0303
▁expectations	-11.0305
ful	-11.031
▁painting	-11.0311
▁locomotives	-11.0312
pal	-11.0314
▁affordability	-11.032
um	-11.0322
▁guyana	-11.0329
▁rr	-11.0331
▁nai	-11.0331
▁110	-11.0332
▁kilometers	-11.0334
▁rk	-11.034
▁theatre	-11.0343
ge	-11.0343
▁rooms	-11.0343
▁ones	-11.0343
▁ghat	-11.0344
02	-11.0345
▁vm	-11.0348
▁walk	-11.0358
▁immunization	-11.036
▁preparatory	-11.036
▁tactical	-11.036
▁apy	-11.0362
▁pe	-11.0368
▁employed	-11.038
▁ali	-11.0397
▁ft	-11.0398
▁twelve	-11.04
▁antyodaya	-11.04
▁travelling	-11.0401
▁amounts	-11.0412
▁examined	-11.0415
▁pk	-11.0419
▁adolescent	-11.042
▁tanks	-11.0427
▁wave	-11.0428
▁bihari	-11.0429
▁91	-11.0437
▁hardware	-11.044
▁biological	-11.044
▁86	-11.0443
▁boat	-11.0446
▁exploitation	-11.0447
▁intra	-11.0448
▁li	-11.0456
▁vote	-11.0458
site	-11.0459
▁character	-11.0467
-4	-11.0467
▁nurturing	-11.0479
▁sampada	-11.048
▁arms	-11.048
▁bimstec	-11.0486
▁northeastern	-11.0488
▁rawat	-11.0492
▁regulators	-11.0494
▁mk	-11.0496
41	-11.0497
▁posed	-11.05
▁laud	-11.0501
side	-11.0504
urban	-11.0506
▁spending	-11.0507
▁appoint	-11.0508
▁assessments	-11.051
▁accurate	-11.0516
▁maximiz	-11.0519
▁bereaved	-11.052
cc	-11.0523
▁player	-11.0527
shram	-11.0529
▁portals	-11.0531
▁discrimination	-11.0535
ate	-11.0536
▁prospects	-11.0539
▁things	-11.054
▁internship	-11.0541
▁feb	-11.0544
▁kant	-11.0556
▁arvind	-11.056
▁consortium	-11.056
▁judiciary	-11.056
▁codes	-11.0561
46	-11.0562
▁dependent	-11.0564
00	-11.0568
▁reflected	-11.0569
▁thought	-11.0569
▁commodity	-11.057
▁hot	-11.057
▁replace	-11.0576
▁digitalization	-11.0576
▁bed	-11.058
▁chintan	-11.0581
▁mothers	-11.0592
▁divyang	-11.0596
▁gates	-11.0597
▁dattatreya	-11.06
▁google	-11.06
▁indigenisation	-11.06
▁gatishakti	-11.06
▁probationers	-11.0601
▁fintech	-11.0601
▁optimism	-11.0601
▁vivekananda	-11.0601
▁song	-11.0606
▁benefited	-11.0607
▁gains	-11.0607
▁profile	-11.0608
▁pmoindia	-11.0608
85	-11.0611
▁sowing	-11.0613
▁periodic	-11.0615
most	-11.063
▁undergoing	-11.0634
▁videos	-11.0636
▁london	-11.0641
▁mukhtar	-11.0641
▁wednesday	-11.0641
▁transgender	-11.0641
ala	-11.0643
▁attractive	-11.0643
▁cwc	-11.0643
▁feet	-11.0648
▁korean	-11.0653
▁discom	-11.0661
▁tracks	-11.0661
▁profession	-11.0665
▁waterway	-11.0678
▁bahadur	-11.0682
▁shivraj	-11.0682
▁passage	-11.0682
▁anupriya	-11.0683
▁counterpart	-11.0683
▁overview	-11.0683
1000	-11.0687
04	-11.0687
laning	-11.0688
▁subscription	-11.0689
mission	-11.069
▁delegations	-11.0692
▁snc	-11.0692
▁mwcd	-11.0704
▁interview	-11.0715
▁organise	-11.0716
▁marginal	-11.0721
▁fighting	-11.0722
▁onion	-11.0722
▁meena	-11.0724
jit	-11.0728
december	-11.0742
▁3.0	-11.0744
▁commandant	-11.0748
▁definition	-11.075
▁pilots	-11.0752
▁assure	-11.0758
▁dap	-11.0758
ara	-11.0761
efficient	-11.0761
▁89	-11.0764
▁fashion	-11.0764
▁giriraj	-11.0764
▁reconstruction	-11.0765
▁misleading	-11.0766
▁nda	-11.0768
▁capita	-11.0768
▁journalists	-11.0772
ted	-11.0773
indian	-11.0774
▁widely	-11.0781
aa	-11.0783
while	-11.0784
▁jump	-11.0789
32	-11.079
▁output	-11.0791
po	-11.0791
▁taxpayer	-11.0794
▁spv	-11.0797
▁iti	-11.0803
▁cess	-11.0804
▁edible	-11.0806
▁driver	-11.0807
▁factor	-11.0808
▁benefitted	-11.0808
▁badal	-11.0808
▁photographs	-11.0809
▁ibbi	-11.0814
▁suffering	-11.0816
▁amritsar	-11.0816
▁15,000	-11.0828
▁simplifying	-11.0837
▁rifles	-11.0843
▁federal	-11.0847
▁boast	-11.0847
▁tiwari	-11.0847
▁2012-13	-11.0847
▁bel	-11.085
▁discovered	-11.0851
▁anticipated	-11.0859
▁cooking	-11.0861
▁81	-11.0867
net	-11.087
rat	-11.0876
▁harness	-11.088
tant	-11.0884
▁braille	-11.0889
▁poultry	-11.0889
▁novel	-11.0889
▁reasonable	-11.0889
▁demonetization	-11.0897
▁loading	-11.0898
mm	-11.0899
▁narayan	-11.09
production	-11.0909
▁requisite	-11.0916
ho	-11.0917
▁linkage	-11.0917
▁udan	-11.0923
▁tackl	-11.0924
▁installations	-11.0925
▁2021-22.	-11.0926
▁topic	-11.0927
▁words	-11.0929
▁promising	-11.093
▁appraisal	-11.0931
▁bandaru	-11.0931
▁amitabh	-11.0936
▁mahila	-11.0938
▁deepening	-11.0938
▁underground	-11.094
▁desired	-11.0942
▁perspectives	-11.0943
▁rear	-11.0944
▁smes	-11.0947
▁assessing	-11.0955
▁precaution	-11.0956
▁puraskar	-11.0956
▁incredible	-11.0956
ali	-11.0957
59	-11.0963
▁gr	-11.0965
ita	-11.0967
▁behavior	-11.097
▁visibility	-11.0972
▁ultra	-11.0972
▁hazardous	-11.0973
▁obligations	-11.0973
▁cambodia	-11.0978
▁availing	-11.0982
▁virus	-11.0982
went	-11.0987
▁champion	-11.0991
▁grain	-11.1001
▁withdrawal	-11.1003
58	-11.1013
▁conducive	-11.1015
▁bahrain	-11.1015
▁easier	-11.1015
▁ethos	-11.1015
▁resistance	-11.1015
▁modernizing	-11.1016
-2015	-11.1018
▁concerted	-11.1018
▁masses	-11.1019
▁intensity	-11.1019
▁cosmetics	-11.1022
▁cap	-11.1029
▁safer	-11.103
▁ghats	-11.1037
▁spaces	-11.104
▁appear	-11.1041
▁employer	-11.1041
47	-11.1045
▁initiate	-11.1051
▁cubic	-11.1057
▁policing	-11.1057
▁paradip	-11.1057
▁sheikh	-11.1058
▁replacing	-11.1058
▁recharge	-11.1059
▁2007	-11.1059
▁holy	-11.1059
▁wishing	-11.1065
▁op	-11.1066
▁don	-11.1068
▁swasthya	-11.1073
▁phones	-11.1073
▁touched	-11.108
affected	-11.108
▁instrument	-11.1083
om	-11.1086
▁expression	-11.1088
▁2022-23.	-11.1092
▁sell	-11.1094
▁nutrient	-11.1096
dk	-11.1097
iden	-11.1099
▁fifteen	-11.11
▁illicit	-11.11
▁floor	-11.11
▁bhagwan	-11.11
▁gajendra	-11.11
▁fellowships	-11.1103
per	-11.1103
▁fulfil	-11.1113
▁sectoral	-11.1115
▁coordinate	-11.1122
disclosed	-11.1125
▁kvks	-11.1126
▁positioning	-11.1127
▁statements	-11.1128
▁easily	-11.1142
▁alleviation	-11.1142
▁bhartiya	-11.1144
▁dipp	-11.1145
-18	-11.115
▁1800	-11.1151
▁encompass	-11.1154
06	-11.1157
▁regulate	-11.1165
▁setup	-11.1176
▁shree	-11.1177
▁kit	-11.1181
▁memory	-11.1185
▁supervision	-11.1185
▁networking	-11.1186
▁regulated	-11.1191
▁sweden	-11.1197
committee	-11.1199
ton	-11.1201
▁biofuels	-11.1207
ig	-11.1213
▁warnings	-11.122
▁television	-11.1228
▁sdrf	-11.1229
▁signs	-11.1231
▁sudan	-11.1232
▁gwalior	-11.1232
▁lies	-11.1246
▁bear	-11.1252
charge	-11.1254
▁owners	-11.1255
aditya	-11.1255
1,000	-11.1256
▁chamber	-11.1256
▁tenders	-11.1257
▁lays	-11.126
84	-11.1261
▁storm	-11.1269
▁founder	-11.127
▁interested	-11.127
▁fibre	-11.1272
▁shastri	-11.1272
▁unmanned	-11.1272
▁resettlement	-11.1272
▁diversion	-11.1272
ey	-11.1272
▁cane	-11.1275
▁underserved	-11.1278
▁exclusively	-11.1278
▁mangalore	-11.1278
▁inducted	-11.128
▁subordinate	-11.1284
07	-11.1288
▁84	-11.1297
▁ch	-11.1297
bangladesh	-11.13
43	-11.1304
eu	-11.1306
▁ceremonial	-11.1315
▁apprenticeship	-11.1315
▁geospatial	-11.1315
▁shivaji	-11.1315
▁parv	-11.1317
▁seychelles	-11.1319
▁100,000	-11.1323
▁surge	-11.1326
▁exams	-11.1326
▁fossil	-11.1329
▁planted	-11.1354
▁jyotir	-11.1357
▁comparison	-11.1359
▁utilisation	-11.1359
▁rainwater	-11.1359
▁atmosphere	-11.1367
▁brave	-11.1371
▁rani	-11.1377
auction	-11.1378
▁epc	-11.1381
▁1957	-11.1384
▁demonstrate	-11.1385
▁imf	-11.1386
▁prohibit	-11.1387
▁buyer	-11.1395
▁2023-24.	-11.1395
▁mandating	-11.1403
▁journal	-11.1403
▁idex	-11.1403
▁peacekeeping	-11.1403
▁automated	-11.1405
▁enjoy	-11.1417
▁cpi	-11.142
56	-11.1422
▁gun	-11.1424
▁firing	-11.1424
ens	-11.1431
▁biometric	-11.1435
breaking	-11.1436
▁cpse	-11.1437
▁ahmed	-11.1446
▁himself	-11.1447
▁dis	-11.1449
▁bombay	-11.145
▁reuse	-11.1451
▁mere	-11.1453
▁87	-11.1453
▁alleviate	-11.1454
92	-11.1462
▁friend	-11.1477
▁baba	-11.1477
general	-11.1479
▁implications	-11.1481
▁mill	-11.1484
▁operator	-11.1486
▁selfless	-11.149
▁embassy	-11.1491
▁vacant	-11.1491
▁factories	-11.1491
▁breeds	-11.1493
▁expedit	-11.1499
▁briefing	-11.1499
▁envisioned	-11.15
▁trip	-11.1501
▁registrations	-11.1503
▁7.	-11.1503
▁pain	-11.1506
▁maharaj	-11.151
▁ap	-11.1511
▁race	-11.1512
▁mention	-11.1519
▁visitor	-11.1521
▁passport	-11.1525
▁cuisine	-11.1526
▁ar	-11.1527
▁spreading	-11.1531
▁disinvestment	-11.1535
▁sidbi	-11.1535
▁zealand	-11.1535
▁edge	-11.1541
pe	-11.1551
ine	-11.156
▁recipients	-11.1563
▁tribe	-11.1571
▁changed	-11.1572
digital	-11.1573
▁cameras	-11.1573
▁patterns	-11.1576
▁graduates	-11.1577
▁pmkvy	-11.158
▁tuberculosis	-11.158
▁extraordinary	-11.158
▁tagore	-11.158
▁prospective	-11.158
ck	-11.1582
▁94	-11.1582
▁league	-11.1583
▁sena	-11.1588
▁2018-19.	-11.1591
ance	-11.1592
▁clarification	-11.1593
▁europe	-11.1595
▁frequency	-11.1596
▁confer	-11.1609
▁conclude	-11.1609
▁conversation	-11.1615
▁merchant	-11.1615
▁eesl	-11.1625
▁automation	-11.1625
▁saturation	-11.1625
▁professionalism	-11.1626
▁determine	-11.1627
▁biotech	-11.1627
▁apr	-11.1628
▁shooting	-11.1631
▁payable	-11.1633
▁fare	-11.1639
▁kiran	-11.1644
bel	-11.1645
▁stp	-11.1645
63	-11.1651
▁supplements	-11.1655
▁tweets	-11.1655
▁prediction	-11.1661
▁98	-11.1664
▁mts	-11.1669
inder	-11.167
▁manganese	-11.167
▁possibilities	-11.167
▁thirty	-11.167
▁tripathi	-11.167
▁unorganised	-11.167
▁nafed	-11.1671
▁handlooms	-11.1671
▁realize	-11.1674
▁udhampur	-11.1674
▁declare	-11.1677
dhan	-11.1677
tri	-11.1678
▁recovered	-11.1683
▁missing	-11.1683
▁seventh	-11.1686
▁boats	-11.1692
▁vertical	-11.1703
matric	-11.1705
point	-11.1705
▁toward	-11.1706
▁footprint	-11.1706
▁borne	-11.1706
▁seizure	-11.1706
▁provider	-11.1707
ty	-11.1708
med	-11.171
▁connects	-11.1711
▁iot	-11.1712
▁exist	-11.1714
▁patriotism	-11.1715
▁washington	-11.1715
▁nearby	-11.1716
▁managers	-11.1717
▁bhushan	-11.1723
▁believe	-11.1727
▁realiz	-11.1728
▁ba	-11.1742
▁academics	-11.1744
▁son	-11.1745
▁gardens	-11.1746
▁acting	-11.175
▁collect	-11.1753
▁powerful	-11.1757
▁amend	-11.1757
▁consolidate	-11.1759
▁obc	-11.1759
▁advertisement	-11.176
▁forefront	-11.1761
▁occurred	-11.1761
▁mentorship	-11.1761
▁sainik	-11.1762
▁exim	-11.1762
▁accessed	-11.177
▁gorakhpur	-11.177
▁pos	-11.1771
ah	-11.1782
▁awarding	-11.1787
▁sanitary	-11.179
ls	-11.179
▁cas	-11.1795
communicable	-11.1798
▁conc	-11.1798
az	-11.1801
ating	-11.1803
▁im	-11.1804
▁shukla	-11.1806
▁acid	-11.1807
▁10.30	-11.1809
▁parliamentarian	-11.1812
ash	-11.1813
▁morocco	-11.1813
▁nfsa	-11.1813
▁incomes	-11.1813
▁foot	-11.1817
▁diet	-11.1819
▁nari	-11.183
▁frame	-11.1832
▁dsm	-11.1832
hs	-11.1834
▁eleven	-11.1835
▁upholding	-11.1839
▁thread	-11.1844
▁branding	-11.1844
▁religion	-11.1845
▁pmuy	-11.1852
▁lanba	-11.1852
▁cdr	-11.1855
86	-11.1855
▁brahmaputra	-11.1857
▁optimal	-11.1858
▁diu	-11.1862
sha	-11.1864
linked	-11.1865
▁hectare	-11.1866
sam	-11.1874
▁surya	-11.1876
▁!	-11.1882
▁constructive	-11.1895
▁operates	-11.1896
wal	-11.1897
▁advocacy	-11.1898
▁trajectory	-11.1898
▁ippb	-11.1898
▁multifaceted	-11.1899
▁jjm	-11.19
▁meant	-11.19
▁apps	-11.1902
▁precision	-11.1903
▁adherence	-11.1903
▁lignite	-11.1905
▁orientation	-11.1907
▁contractors	-11.1909
cost	-11.1913
▁cooperate	-11.1914
▁deeper	-11.192
hu	-11.1924
▁drr	-11.1928
house	-11.1931
▁prayers	-11.1932
82	-11.1933
▁difference	-11.1938
▁consecutive	-11.1944
▁mechanization	-11.1944
▁fiber	-11.1944
▁supplementary	-11.1946
▁varied	-11.1946
▁minimiz	-11.1965
▁82	-11.1966
▁hfw	-11.1973
▁commend	-11.1973
▁vaccines	-11.1979
▁shops	-11.1982
performing	-11.1982
▁score	-11.1984
▁aspect	-11.1985
▁compete	-11.199
▁although	-11.1991
▁chandrayaan	-11.1991
▁dubai	-11.1991
▁dwarka	-11.1991
▁srivastava	-11.1991
▁erst	-11.1993
▁honey	-11.1993
ize	-11.1995
land	-11.1996
▁sailing	-11.1996
▁maps	-11.2001
▁fta	-11.2001
▁simplify	-11.2002
▁hk	-11.2003
▁nov	-11.2007
▁itis	-11.2021
▁praise	-11.2026
05	-11.203
▁construct	-11.2032
▁calendar	-11.2038
▁wreath	-11.2038
▁levy	-11.2038
▁submitting	-11.2038
▁putting	-11.2039
ca	-11.2039
▁debate	-11.204
▁ramesh	-11.2041
53	-11.2042
▁timeline	-11.2042
▁dna	-11.2044
▁durga	-11.2047
▁framed	-11.2048
za	-11.2048
▁phd	-11.2051
▁shiv	-11.2052
▁greatly	-11.2052
▁messages	-11.2053
▁smuggling	-11.2054
ru	-11.2057
▁structured	-11.2059
pr	-11.2061
▁2030,	-11.2064
by	-11.2064
▁bulbs	-11.2068
development	-11.2079
▁begins	-11.208
▁menace	-11.2085
▁ordnance	-11.2085
▁rudy	-11.2085
▁infantry	-11.2085
▁hit	-11.2085
▁personalities	-11.2085
▁rakesh	-11.2086
▁signifie	-11.2087
▁counseling	-11.2096
▁dae	-11.21
▁lectures	-11.2101
▁musical	-11.2102
▁96	-11.2103
▁nurses	-11.2103
▁cycling	-11.2106
01	-11.211
▁3.5	-11.2115
▁reveal	-11.2115
▁sad	-11.2116
▁advantages	-11.2126
▁presents	-11.2129
.37	-11.213
sufficiency	-11.2132
▁dredging	-11.2132
▁rigorous	-11.2132
▁vulnerability	-11.2132
bo	-11.2133
▁fruitful	-11.2133
▁muslim	-11.2136
▁gaurav	-11.2136
▁nit	-11.2144
▁tranche	-11.2146
▁displays	-11.215
▁pioneering	-11.215
▁emerge	-11.2173
▁effluent	-11.2174
▁6000	-11.2176
▁2011-12	-11.2179
▁absence	-11.2179
▁extraction	-11.2179
98	-11.2181
▁underprivileged	-11.2181
▁panels	-11.2195
▁champions	-11.2196
▁le	-11.2203
▁srinivas	-11.2205
ini	-11.222
▁disseminate	-11.222
▁instituted	-11.2221
▁formulate	-11.2222
▁advertising	-11.2227
▁pfrda	-11.2227
▁samirjk	-11.2227
▁radiation	-11.2227
▁dedicate	-11.2228
▁elementary	-11.2228
▁constantly	-11.2232
▁mozambique	-11.2232
▁fame	-11.2233
65	-11.2235
▁mig	-11.226
▁observations	-11.226
▁cat	-11.226
▁equipments	-11.2272
8,000	-11.2273
▁pulse	-11.2275
▁alumni	-11.2275
▁irnss	-11.2275
▁civilians	-11.2275
▁talk	-11.2275
▁passion	-11.2276
▁dual	-11.2277
▁oath	-11.2278
oi	-11.2278
▁cantt	-11.228
83	-11.2293
▁ghaziabad	-11.2293
▁mechanical	-11.2293
▁paul	-11.2297
▁quarters	-11.2298
▁generally	-11.2298
▁shortly	-11.2302
▁containers	-11.2304
▁litigation	-11.2306
▁azad	-11.2319
▁reason	-11.2319
▁grap	-11.2319
▁prince	-11.2322
tt	-11.2322
▁pariyojana	-11.2323
▁departure	-11.2323
▁upliftment	-11.2323
su	-11.2323
▁chosen	-11.2323
▁warriors	-11.2324
▁stretches	-11.2325
▁lasting	-11.2329
▁badminton	-11.233
▁shreshtha	-11.233
▁z	-11.2335
▁signal	-11.2339
▁organizes	-11.2343
▁upendra	-11.2344
ft	-11.2345
▁shipyards	-11.2352
▁chile	-11.2356
▁designing	-11.2358
▁cleared	-11.2367
▁catalyst	-11.2369
▁liabilities	-11.2371
▁detect	-11.2375
▁175	-11.238
▁dpp	-11.2381
▁agartala	-11.2386
▁dreams	-11.2388
ev	-11.239
ish	-11.2392
▁sb	-11.24
sea	-11.24
▁jun	-11.2401
uma	-11.2404
▁depth	-11.2404
▁rc	-11.2415
▁reservoirs	-11.2416
modal	-11.2418
▁1100	-11.2418
ong	-11.2419
▁arrears	-11.242
▁sacred	-11.242
venkaiah	-11.242
▁1956	-11.2421
▁healthier	-11.2423
ese	-11.2426
▁floating	-11.2426
▁forums	-11.2427
▁sts	-11.243
▁widening	-11.243
shi	-11.2436
▁arrested	-11.2436
▁dda	-11.2437
▁rankings	-11.2438
▁25,000	-11.2442
▁unveiling	-11.2443
▁printing	-11.2443
▁athletics	-11.2446
57	-11.2461
▁respond	-11.2462
▁conserve	-11.2462
▁79	-11.2464
▁mindset	-11.2467
▁dc	-11.2467
mu	-11.2467
▁handicraft	-11.2467
▁exempt	-11.2468
▁equip	-11.2468
▁discount	-11.2468
▁glorious	-11.2468
▁saxena	-11.2472
▁habitat	-11.2473
▁dpsus	-11.2476
mt	-11.2479
av	-11.249
▁manuscripts	-11.2492
▁2023-24,	-11.2494
▁bee	-11.2495
10,000	-11.2498
▁plazas	-11.2501
▁supportive	-11.2506
▁diagnosis	-11.2517
▁circulated	-11.2517
bharat	-11.2518
▁entrusted	-11.2519
▁entering	-11.2519
▁1988	-11.252
55	-11.2523
▁ecological	-11.2524
ph	-11.2526
▁elephant	-11.2527
▁referral	-11.2528
fold	-11.2529
▁140	-11.253
powered	-11.2533
▁moc	-11.2537
▁115	-11.254
▁pat	-11.2545
52	-11.2548
▁arrest	-11.2549
▁expect	-11.255
▁controlled	-11.2563
▁relative	-11.2566
▁corner	-11.2566
▁obligation	-11.2566
▁diwali	-11.2567
▁emergencies	-11.2567
▁consolidat	-11.2568
resilient	-11.257
▁mgnrega	-11.2571
sectoral	-11.2572
▁gokul	-11.2575
▁airline	-11.2576
▁hotels	-11.2577
▁iica	-11.2583
▁incubators	-11.2593
▁lca	-11.2595
▁5,000	-11.2602
▁vidyalayas	-11.2604
▁rescued	-11.2607
▁nurture	-11.261
▁ultimate	-11.2613
▁suppliers	-11.2615
▁ksdnkpkkm	-11.2616
▁juvenile	-11.2616
▁mittal	-11.2616
ng	-11.2616
▁babasaheb	-11.2616
▁satish	-11.2616
▁violation	-11.2616
▁biogas	-11.2617
ready	-11.262
▁kazakhstan	-11.2623
▁sangam	-11.2627
▁reiterat	-11.2628
▁sport	-11.2628
▁wall	-11.2643
▁notices	-11.2643
▁sp	-11.2652
▁ta	-11.2654
▁divide	-11.2657
▁83	-11.266
▁younger	-11.266
▁adapt	-11.2662
▁pursuit	-11.2665
▁futuristic	-11.2666
▁ignca	-11.2666
▁stimulate	-11.2666
▁bhagat	-11.2666
▁nigam	-11.2666
▁pawar	-11.2667
▁fastest	-11.2668
▁coastline	-11.2671
ranking	-11.2676
▁ngo	-11.268
▁breaking	-11.2683
ise	-11.2693
▁facto	-11.2694
-8	-11.2701
▁crossings	-11.2706
▁ordinance	-11.2716
▁stringent	-11.2716
▁flexible	-11.2716
▁dmnampiraj	-11.2716
▁eradication	-11.2716
▁rollout	-11.2717
▁wild	-11.2717
▁slow	-11.2719
▁sensitization	-11.2719
▁exhibitors	-11.272
▁fortified	-11.2722
▁therapy	-11.273
▁yard	-11.2731
▁protocols	-11.2736
sar	-11.2742
▁reinforc	-11.2742
▁departmental	-11.2744
▁studying	-11.2745
▁mitigat	-11.2747
▁jam	-11.2748
▁ecosystems	-11.275
▁herbal	-11.2751
▁appreciate	-11.2752
▁implements	-11.2755
▁hr	-11.2765
▁135	-11.2765
▁frontline	-11.2767
▁cybercrime	-11.2767
▁relaxation	-11.2768
formally	-11.2769
▁counselling	-11.277
duly	-11.277
budget	-11.2772
▁ending	-11.2774
▁rakes	-11.2774
▁suggests	-11.2775
▁garbage	-11.2777
▁pds	-11.2785
▁feed	-11.2799
▁dear	-11.2801
▁altitude	-11.281
▁divas	-11.2817
▁sammelan	-11.2817
▁matsya	-11.2817
▁gurugram	-11.2817
▁mantra	-11.2819
▁dsmrmk	-11.2819
▁1995	-11.2819
▁arab	-11.2822
▁aug	-11.2823
▁standardized	-11.2823
-2023	-11.2826
▁maidan	-11.2827
over	-11.2829
▁separately	-11.2832
▁ped	-11.2848
▁invested	-11.2849
▁enthusiastic	-11.2853
▁distributing	-11.2867
▁wrestling	-11.2867
▁pursuance	-11.2867
▁blair	-11.2868
▁jury	-11.2868
▁authorization	-11.2868
▁brain	-11.2868
▁rajyavardhan	-11.2869
▁migrant	-11.287
▁oral	-11.2871
▁margin	-11.2871
▁sanjeev	-11.2873
▁replaced	-11.2876
▁exempted	-11.2885
▁plastics	-11.2885
▁responsive	-11.2888
▁personally	-11.2888
▁american	-11.2889
▁haldia	-11.289
▁bad	-11.2892
▁ranked	-11.2908
▁en	-11.291
ata	-11.2911
▁rama	-11.2912
ated	-11.2916
▁culinary	-11.2918
▁inadequate	-11.2918
▁influenza	-11.2918
▁rohan	-11.2919
▁depends	-11.292
▁reinforce	-11.292
▁spirituality	-11.292
▁postgraduate	-11.292
▁page	-11.2921
62	-11.2924
▁safeguards	-11.2924
▁ethics	-11.2925
▁ring	-11.2929
▁restricted	-11.293
▁doesn	-11.2933
▁garg	-11.2934
▁ulbs	-11.2941
made	-11.2942
lu	-11.2943
▁amar	-11.295
act	-11.2952
dot	-11.2954
▁receives	-11.2956
ship	-11.2961
aj	-11.2961
▁retreat	-11.2964
▁evaluate	-11.2969
▁necessity	-11.297
▁paradigm	-11.297
▁valour	-11.297
▁modalities	-11.297
▁heroes	-11.297
▁ncdc	-11.2971
▁hilly	-11.2972
▁hindu	-11.2973
▁shelter	-11.2973
▁mla	-11.2978
▁prevailing	-11.298
enabled	-11.2981
sks	-11.2986
▁boxing	-11.299
▁runs	-11.299
▁engines	-11.2993
▁museums	-11.2998
▁cea	-11.2998
bed	-11.3009
▁patents	-11.3011
▁earning	-11.3012
▁periods	-11.3014
▁investigate	-11.3015
▁evolve	-11.3015
09	-11.3016
▁falling	-11.3017
▁hill	-11.3021
▁majesty	-11.3021
▁pmfby	-11.3021
▁switzerland	-11.3021
▁routine	-11.3021
▁thaawarchand	-11.3021
▁indigenization	-11.3021
▁substance	-11.3025
▁raman	-11.3027
▁waiting	-11.3027
▁caus	-11.3028
▁ananth	-11.303
▁elaborated	-11.3033
▁philippines	-11.3036
▁ku	-11.304
▁lights	-11.3045
-5	-11.3052
▁battalions	-11.3052
▁gained	-11.3057
▁coincide	-11.3058
▁el	-11.306
▁charter	-11.3064
▁che	-11.3064
▁abu	-11.3064
▁penal	-11.3069
services	-11.3073
▁ncb	-11.3073
▁consultancy	-11.3073
▁reliability	-11.3073
▁essay	-11.3073
▁superannuation	-11.3073
▁appellat	-11.3073
▁salary	-11.3073
.45	-11.3079
▁divya	-11.3083
women	-11.3084
ease	-11.3093
▁packages	-11.3093
▁physically	-11.3103
▁nomination	-11.3107
▁mukt	-11.3107
situ	-11.3108
▁otherwise	-11.3109
▁2004.	-11.3112
▁substances	-11.3121
▁tableau	-11.3125
▁cordial	-11.3125
▁incidence	-11.3125
▁gail	-11.3125
▁hpcl	-11.3126
▁uplift	-11.3127
▁neighbour	-11.313
▁consistently	-11.3131
▁1030	-11.3136
respective	-11.3137
▁qr	-11.314
▁harvest	-11.3146
▁petrochemicals	-11.3149
▁dharma	-11.3151
▁sarva	-11.3152
▁graduat	-11.3153
▁commenc	-11.3154
pc	-11.3156
2023	-11.3156
▁existence	-11.3156
▁installing	-11.3157
kha	-11.3158
hour	-11.3173
▁cic	-11.3176
▁beauty	-11.3178
▁infrastructural	-11.3178
▁declining	-11.3178
▁nhpc	-11.3178
▁salute	-11.3179
▁artistic	-11.3179
▁cgst	-11.3182
▁marriage	-11.3183
▁cancellation	-11.3183
▁annuity	-11.3188
▁450	-11.319
6,000	-11.3195
▁suburban	-11.3198
dh	-11.3205
irender	-11.3225
▁swadesh	-11.3227
▁canal	-11.3229
▁solidarity	-11.323
▁ccras	-11.323
▁kutch	-11.323
▁pt	-11.3231
▁mahendra	-11.3231
▁vayu	-11.3232
▁cheque	-11.3236
▁iitf	-11.3237
▁indoor	-11.3241
▁athlete	-11.3241
principle	-11.3243
▁augmenting	-11.3248
.67	-11.3257
yan	-11.3257
▁vis	-11.3258
▁specifications	-11.326
▁falls	-11.3262
deep	-11.3262
▁gone	-11.3263
▁shram	-11.3265
▁97	-11.3266
▁neet	-11.3268
▁imc	-11.3272
▁pest	-11.3276
▁distribute	-11.3277
▁dimensions	-11.3283
▁dibrugarh	-11.3283
▁twice	-11.3283
▁udaipur	-11.3283
▁lady	-11.3284
▁everest	-11.3285
▁wastewater	-11.3285
▁ibc	-11.3285
ip	-11.3296
▁born	-11.3297
▁rolled	-11.33
so	-11.3303
▁daman	-11.3305
▁maj	-11.3314
▁bot	-11.3318
▁upadhyay	-11.3331
cious	-11.3334
▁psycho	-11.3336
▁releasing	-11.3336
▁hydropower	-11.3336
bs	-11.3337
▁gather	-11.3338
▁kmph	-11.3339
▁undp	-11.3339
▁coir	-11.334
▁wonderful	-11.334
water	-11.3342
▁modes	-11.3342
▁recognised	-11.3343
▁automobile	-11.3344
▁asserted	-11.3346
▁strengthens	-11.3346
▁rendering	-11.335
▁sdg	-11.3352
▁displaying	-11.3359
▁canadian	-11.336
▁moved	-11.3367
▁ids	-11.3369
▁centered	-11.3371
▁store	-11.3375
▁prove	-11.3377
▁gulf	-11.3383
▁correct	-11.3385
han	-11.3388
▁calamities	-11.339
▁casualties	-11.339
▁tennis	-11.339
▁natak	-11.3391
▁impart	-11.3392
▁bhu	-11.3393
▁compendium	-11.3395
96	-11.3395
▁garment	-11.3398
▁tirupati	-11.3398
ind	-11.3401
▁deo	-11.3403
generation	-11.3404
▁demonstrates	-11.3404
▁trusts	-11.3409
▁gear	-11.3417
.35	-11.3421
▁raju	-11.3426
▁uphold	-11.3431
▁depict	-11.3433
men	-11.3434
▁7.5	-11.3435
250	-11.3435
gar	-11.3436
70	-11.3441
▁ksdnkpk	-11.3442
▁aadhar	-11.3443
▁aggarwal	-11.3444
▁rationalization	-11.3444
▁visible	-11.3444
▁techno	-11.3447
▁ayodhya	-11.345
▁2028	-11.3451
▁stps	-11.3457
▁prohibited	-11.3467
▁nos	-11.3475
▁30,000	-11.3479
▁commanded	-11.348
▁scs	-11.3495
▁leprosy	-11.3498
▁pankaj	-11.3498
▁apeda	-11.3498
▁forthcoming	-11.3498
▁gateway	-11.35
▁mock	-11.3501
▁abhishek	-11.3501
▁hadr	-11.3504
bar	-11.3506
▁kamal	-11.3506
▁dinesh	-11.3512
.33	-11.3513
▁bypass	-11.3514
▁viewing	-11.3514
▁textbooks	-11.352
▁forestry	-11.3523
▁dates	-11.3528
▁dfs	-11.353
▁meal	-11.3531
5,000	-11.3542
▁hinder	-11.3542
▁ja	-11.3546
▁goodwill	-11.3553
.62	-11.3555
▁impactful	-11.3555
▁motivated	-11.3561
logical	-11.3561
march	-11.3569
plan	-11.357
▁sep	-11.3572
▁webinars	-11.3574
pi	-11.3583
▁berths	-11.3583
▁rose	-11.3585
▁removed	-11.3585
▁beds	-11.3588
▁measur	-11.3607
▁distinction	-11.3607
▁roof	-11.3609
▁kcc	-11.3614
▁protective	-11.3617
▁93	-11.3618
▁disruptions	-11.362
▁manufacturer	-11.362
▁bearing	-11.3622
▁2005.	-11.3625
▁disclosure	-11.3625
▁older	-11.3628
▁accredited	-11.3629
▁causes	-11.363
▁adhere	-11.3634
▁blend	-11.3635
-2024	-11.3636
▁cpc	-11.3643
▁feel	-11.3644
wide	-11.3645
rr	-11.3647
▁associate	-11.3647
▁cvc	-11.365
▁sisters	-11.365
vis	-11.3652
▁behaviour	-11.3659
▁noon	-11.3661
▁remunerative	-11.3662
▁tinkering	-11.3662
▁academicians	-11.3662
vallabhbhai	-11.3663
▁twin	-11.3663
▁partially	-11.3664
-16	-11.3671
▁pump	-11.3671
▁equally	-11.3674
▁shop	-11.3682
▁tariffs	-11.3688
▁cable	-11.3691
▁inderj	-11.3692
▁imparting	-11.3698
▁mandir	-11.3704
▁meals	-11.3707
▁retiring	-11.3717
▁abbsavvy	-11.3717
▁ncpcr	-11.3717
▁opposition	-11.3717
▁kishore	-11.3718
▁circuits	-11.3719
dar	-11.3722
▁suvidha	-11.3723
ent	-11.3724
67	-11.3724
▁indicate	-11.3724
▁soul	-11.3726
▁father	-11.3728
▁preference	-11.3728
▁relation	-11.3729
▁idy	-11.3729
▁ajmer	-11.373
▁communal	-11.373
▁dynamics	-11.373
▁reiterate	-11.3735
▁responded	-11.3735
mail	-11.3737
nu	-11.3741
hand	-11.375
▁180	-11.3755
.69	-11.3757
ika	-11.3767
▁founding	-11.377
▁infant	-11.3772
▁credible	-11.3772
▁lithium	-11.3772
▁malaria	-11.3772
▁mountaineering	-11.3776
▁sellers	-11.378
▁elevated	-11.3781
▁locomotive	-11.3785
▁dy	-11.3786
▁stones	-11.3789
87	-11.379
▁ended	-11.3791
▁sag	-11.3794
▁moon	-11.3804
▁jha	-11.3808
▁transformed	-11.3817
▁mount	-11.3821
-11	-11.3822
▁restore	-11.3822
▁saath	-11.3825
▁curtain	-11.3828
▁mohfw	-11.3828
▁profound	-11.3828
▁nbcc	-11.383
▁greenhouse	-11.3831
▁neem	-11.3831
▁royalty	-11.3833
▁lic	-11.3838
▁160	-11.3838
▁youngsters	-11.3839
▁clearly	-11.3839
▁chakra	-11.3841
▁victim	-11.3841
▁lane	-11.3842
▁download	-11.3845
▁robotics	-11.3848
▁exceeded	-11.3854
▁aar	-11.3855
2022	-11.3861
▁shg	-11.3873
▁element	-11.3874
bh	-11.3874
▁feat	-11.3875
▁appreciat	-11.3875
▁procure	-11.3878
▁whom	-11.388
▁rooted	-11.3881
▁jawans	-11.3882
▁revive	-11.3883
▁kathmandu	-11.3884
▁leaving	-11.3884
▁false	-11.3884
▁ndmc	-11.3884
▁mopng	-11.3884
▁armies	-11.3885
▁paperless	-11.3885
▁mexico	-11.3888
▁cng	-11.389
▁goes	-11.3892
▁saplings	-11.3892
▁eshram	-11.3893
▁reading	-11.3894
▁door	-11.3895
▁brainstorming	-11.3897
▁imperative	-11.3897
▁crossing	-11.3901
ks	-11.3903
▁seafarers	-11.3904
▁lesser	-11.3905
▁extensively	-11.3906
▁attempts	-11.3912
▁reverse	-11.3913
51	-11.3919
ke	-11.3921
▁alok	-11.3922
▁talking	-11.3926
▁nhs	-11.393
▁mea	-11.3931
▁dengue	-11.3941
▁mofpi	-11.3941
▁aspiring	-11.3941
▁reimbursement	-11.3941
▁wife	-11.3941
▁preferred	-11.3941
▁systematic	-11.3942
▁watershed	-11.3943
▁1971	-11.3943
▁evolved	-11.3948
▁neighbor	-11.3954
▁licence	-11.3954
▁installment	-11.3955
▁4-	-11.3971
▁birds	-11.3975
69	-11.3984
▁arm	-11.3988
▁holder	-11.3993
▁itu	-11.3994
▁subhas	-11.3994
▁footwear	-11.3998
▁pravasi	-11.3998
▁turnaround	-11.3998
▁consolidation	-11.3998
▁motto	-11.3998
▁meter	-11.3999
▁rkj	-11.4001
▁ncrb	-11.4003
▁spearhead	-11.4005
▁registrar	-11.4007
▁depot	-11.4013
▁gaya	-11.4015
▁documentary	-11.4015
▁powered	-11.4017
▁advise	-11.402
ie	-11.4021
▁css	-11.4022
compliance	-11.4024
68	-11.403
▁submissions	-11.4035
▁spots	-11.4039
49	-11.4044
▁fo	-11.4046
▁fraudulent	-11.4051
▁aforesaid	-11.4055
▁centuries	-11.4055
▁maturity	-11.4055
▁zinc	-11.4055
▁youtube	-11.4055
▁mata	-11.4055
▁periodically	-11.4056
▁tsunami	-11.4059
▁vsm	-11.4062
▁uan	-11.4063
▁visually	-11.4063
she	-11.4065
▁dust	-11.4067
▁threshold	-11.407
▁opinion	-11.407
▁assignment	-11.407
-15	-11.4073
▁ideal	-11.4076
▁grameen	-11.408
▁concepts	-11.4083
▁finished	-11.4089
▁cscs	-11.4092
▁2047,	-11.4095
br	-11.4103
▁pad	-11.4108
abled	-11.4109
▁fiji	-11.4111
▁alphons	-11.4112
▁excerpt	-11.4112
▁merchandise	-11.4112
▁prowess	-11.4112
▁immigration	-11.4112
▁konkan	-11.4112
▁mandapam	-11.4112
▁sovereignty	-11.4112
▁dgft	-11.4113
▁settled	-11.4115
▁coupled	-11.4116
▁unless	-11.4116
slated	-11.4117
▁16.	-11.4117
▁deepak	-11.4117
▁usher	-11.4117
▁install	-11.4118
▁voting	-11.4121
▁mtpa	-11.4124
operative	-11.4126
▁accountable	-11.4126
▁parallel	-11.4128
▁therapeutic	-11.4133
▁combination	-11.4133
▁successes	-11.4136
learning	-11.4143
▁colours	-11.4145
▁limitations	-11.4148
ner	-11.4157
▁oram	-11.416
▁mat	-11.4162
▁mostly	-11.4163
▁accommodate	-11.4166
▁expeditious	-11.4167
▁nsg	-11.4168
iruvananthapuram	-11.417
▁platinum	-11.417
▁verify	-11.417
▁assuming	-11.417
▁stabilization	-11.417
▁lowest	-11.4175
▁earn	-11.4176
▁importers	-11.4178
▁begun	-11.4179
▁112	-11.418
pan	-11.4181
▁portfolio	-11.4187
ting	-11.4194
▁renovation	-11.4196
▁walks	-11.4199
▁responses	-11.4202
▁offset	-11.4204
▁efficiently	-11.4207
▁recording	-11.4211
▁yogi	-11.4216
para	-11.422
▁needy	-11.4225
china	-11.4225
▁krishan	-11.4226
▁ordered	-11.4227
▁basket	-11.4228
▁killed	-11.4228
▁shanghai	-11.4228
▁inventory	-11.4229
▁validity	-11.4229
▁ran	-11.423
▁recover	-11.4232
td	-11.4233
▁sanctioning	-11.4235
▁affiliated	-11.4239
▁entrance	-11.4242
▁measurement	-11.4246
▁prioritized	-11.4249
▁comply	-11.4251
que	-11.4256
▁jv	-11.4266
kumar	-11.4268
if	-11.4272
▁radars	-11.4277
▁105	-11.4279
▁acquire	-11.428
▁rains	-11.4283
▁frequent	-11.4286
▁diagnostics	-11.4286
▁106	-11.4287
▁memoranda	-11.4287
▁registry	-11.4287
▁madhav	-11.4287
▁aiib	-11.4288
▁stipulated	-11.429
▁bharatnet	-11.4294
▁prevalence	-11.4294
▁iims	-11.4295
▁1996	-11.4299
▁sant	-11.43
ama	-11.4303
▁barrier	-11.4305
ati	-11.4307
▁artist	-11.4308
▁iisc	-11.431
-24	-11.4314
ada	-11.4315
▁melas	-11.4323
▁surpass	-11.4335
▁clinics	-11.4336
▁beat	-11.4337
life	-11.4338
ec	-11.4339
▁comment	-11.4343
▁excess	-11.4345
▁constituent	-11.4346
▁pmjjby	-11.4346
▁situated	-11.4346
▁york	-11.4346
▁metrology	-11.4346
▁grse	-11.4347
▁increasingly	-11.4347
▁kam	-11.4348
▁throw	-11.4349
▁mohammad	-11.4349
sm	-11.435
▁ra	-11.435
▁instill	-11.4358
▁sky	-11.436
▁divisions	-11.4361
▁habitations	-11.4363
▁detected	-11.4365
▁candidate	-11.4371
▁ior	-11.4373
▁coe	-11.4373
▁reward	-11.4373
▁exported	-11.4374
▁title	-11.4374
▁wagons	-11.4375
▁clubs	-11.4377
▁thereof	-11.438
▁honoured	-11.4388
▁flags	-11.4391
▁2011.	-11.4396
▁cd	-11.4399
▁convenient	-11.4401
▁modifications	-11.4402
▁flows	-11.4404
▁fodder	-11.4405
▁himanshu	-11.4405
▁motivation	-11.4405
▁voyage	-11.4405
▁lekhi	-11.4405
▁nyks	-11.4405
▁caseload	-11.4405
▁mehta	-11.4405
▁sangamam	-11.4406
▁weeding	-11.4407
▁?	-11.4411
▁directives	-11.4414
▁101	-11.4419
▁asha	-11.4421
▁apas	-11.4428
oc	-11.4428
▁magazine	-11.4435
took	-11.444
▁samiti	-11.4442
system	-11.4459
meter	-11.4459
gen	-11.446
▁itr	-11.4462
▁guinea	-11.4464
▁1993	-11.4467
▁pmbjp	-11.4467
▁controlling	-11.4468
54	-11.4469
▁comfortable	-11.447
▁marathon	-11.4473
▁exists	-11.4476
▁immensely	-11.4476
▁qa	-11.4484
▁cereals	-11.4489
▁seasonal	-11.4503
jay	-11.4504
▁announc	-11.4515
▁sheet	-11.4517
▁kho	-11.4519
▁adjoining	-11.4524
▁vector	-11.4524
▁pmsby	-11.4524
▁samagra	-11.4524
▁manmohan	-11.4524
▁bottlenecks	-11.4524
▁sickle	-11.4525
▁popularity	-11.4525
▁sendai	-11.4525
▁territori	-11.453
▁paved	-11.4534
▁spain	-11.4534
▁arrive	-11.4543
▁fruit	-11.4544
▁truth	-11.4546
88	-11.4547
▁holiday	-11.4547
▁presidential	-11.4548
▁tailor	-11.4549
cha	-11.455
▁dd	-11.4551
largest	-11.456
endra	-11.4575
▁define	-11.4578
ities	-11.4579
▁si	-11.458
scheme	-11.4581
.90	-11.4582
▁ru	-11.4584
▁faridabad	-11.4584
▁nhidcl	-11.4584
▁stroke	-11.4584
▁suriname	-11.4584
▁unauthorized	-11.4584
▁diplomacy	-11.4584
▁2011,	-11.4585
▁haribhai	-11.4585
▁copies	-11.4585
▁returning	-11.4586
▁timeframe	-11.4586
▁1972	-11.4587
▁ash	-11.459
▁upload	-11.4597
▁reaches	-11.4597
▁kaur	-11.4599
▁profits	-11.4604
stop	-11.4604
▁tower	-11.4607
▁credited	-11.4609
▁126	-11.461
▁doubled	-11.4612
▁aur	-11.4614
▁bjp	-11.4616
week	-11.4618
▁alerts	-11.4619
japan	-11.4621
▁ppps	-11.4624
▁bhi	-11.463
▁aided	-11.4631
▁pris	-11.4635
77	-11.4637
▁bright	-11.4637
▁111	-11.4639
66	-11.4642
▁george	-11.4645
▁enemy	-11.4645
▁summary	-11.4645
▁valuation	-11.4645
▁nrdc	-11.4645
▁collateral	-11.4645
▁devendra	-11.4645
▁childhood	-11.4645
▁isolated	-11.4646
▁mechanized	-11.4646
▁multimodal	-11.4647
▁intention	-11.4647
▁wake	-11.4648
▁alleged	-11.465
▁counters	-11.465
▁notifications	-11.4651
▁scavengers	-11.4652
▁ondc	-11.4654
▁abled	-11.4656
▁condemned	-11.4661
▁impaired	-11.4665
▁strike	-11.4667
▁recipient	-11.4668
▁18.	-11.4674
this	-11.4679
▁attracted	-11.4682
▁dac	-11.4683
box	-11.4684
▁kal	-11.4689
▁navodaya	-11.4689
▁wetlands	-11.4699
▁moral	-11.4699
tier	-11.4701
▁cylinders	-11.4703
-23	-11.4706
▁kutumbakam	-11.4706
▁famous	-11.4706
▁genuine	-11.4706
▁intelligent	-11.4706
▁sangathan	-11.4706
▁linguistic	-11.4706
▁urad	-11.4706
▁ice	-11.4707
▁cites	-11.4708
▁shoulder	-11.4709
▁ajit	-11.4709
▁secunderabad	-11.4715
▁governed	-11.4717
▁prisoners	-11.472
▁offenders	-11.4721
▁utsav	-11.4722
▁obcs	-11.4724
▁urbanization	-11.4725
▁perception	-11.4729
▁brothers	-11.4731
▁pit	-11.4732
▁peer	-11.4733
▁dependents	-11.4734
▁specialty	-11.4738
▁disorders	-11.4739
61	-11.475
▁corporates	-11.4751
▁finale	-11.4756
board	-11.4759
▁ddugjy	-11.4767
▁emotional	-11.4767
▁logistical	-11.4769
▁echo	-11.4771
▁arranged	-11.4773
▁focussed	-11.4773
73	-11.4777
▁contacts	-11.4784
▁aggregate	-11.4786
▁collectively	-11.4786
▁seth	-11.4791
▁interviews	-11.4793
▁stall	-11.4795
▁benchmarks	-11.4801
▁availed	-11.4802
▁inside	-11.4803
▁specialists	-11.4806
150	-11.4807
▁condemn	-11.4813
chi	-11.4813
.26	-11.4816
▁tomato	-11.4828
▁esteemed	-11.4829
▁payroll	-11.4829
4,000	-11.4831
▁boundary	-11.4831
▁litres	-11.4834
mar	-11.4838
▁fa	-11.4838
▁blended	-11.4847
▁anubhav	-11.4848
▁kar	-11.485
▁1980	-11.4851
▁mixed	-11.4857
▁bird	-11.4861
▁quit	-11.4861
▁borrowing	-11.4862
▁missiles	-11.4864
▁venues	-11.4868
io	-11.4869
▁accessing	-11.487
▁wheel	-11.4878
▁specialist	-11.488
▁ca	-11.4885
▁collectors	-11.4885
ep	-11.4889
▁grew	-11.489
▁mountain	-11.4891
▁alimco	-11.4891
▁birmingham	-11.4891
▁bonus	-11.4891
▁deficiencies	-11.4891
▁optimum	-11.4891
▁devolution	-11.4891
▁uncovered	-11.4894
mc	-11.4896
▁reactors	-11.4906
▁saddened	-11.4906
▁observe	-11.4906
▁jodhpur	-11.4907
▁suit	-11.4913
▁namo	-11.4915
▁deduction	-11.4916
▁chance	-11.4917
▁rcs	-11.4918
▁towers	-11.4931
▁kyc	-11.4936
dis	-11.4941
▁atul	-11.4951
▁vikram	-11.4953
▁disseminating	-11.4954
▁jadhav	-11.4954
▁brotherhood	-11.4954
▁gurjar	-11.4954
▁why	-11.4954
▁moil	-11.4956
▁accomplishments	-11.4956
▁sensitivity	-11.4957
▁shortages	-11.4959
▁sovereign	-11.496
▁custom	-11.4962
.14	-11.4972
has	-11.4976
▁chambers	-11.4977
▁widows	-11.4978
▁polling	-11.498
▁landslide	-11.498
mb	-11.4982
▁looks	-11.4984
▁technique	-11.4988
tr	-11.4992
fossil	-11.4997
win	-11.4998
▁formulations	-11.5003
▁cag	-11.5014
▁investigating	-11.5017
▁physics	-11.5017
▁armour	-11.5017
▁mahavir	-11.5017
du	-11.5019
swachh	-11.5022
▁adher	-11.5024
▁alternatives	-11.5028
▁administrators	-11.503
▁noble	-11.5036
▁insufficient	-11.504
▁ipc	-11.5043
▁raiser	-11.5044
▁lifestyles	-11.505
das	-11.5065
▁chiefs	-11.5067
▁pumps	-11.5069
going	-11.5075
▁traditionally	-11.5078
▁banquet	-11.508
▁educating	-11.508
▁methodologies	-11.508
▁saurabh	-11.508
▁nalco	-11.508
▁clock	-11.508
▁gasification	-11.5081
▁behavioral	-11.5083
▁cns	-11.5084
▁communique	-11.5084
▁overwhelming	-11.5084
▁ncf	-11.5085
▁nor	-11.509
▁dams	-11.5094
▁colonial	-11.5094
▁delighted	-11.5094
space	-11.5103
power	-11.5107
▁contributor	-11.5108
▁1.4	-11.5112
▁damaged	-11.5112
▁cu	-11.5113
94	-11.5118
▁allocat	-11.5119
.30	-11.5121
▁colour	-11.5125
carbon	-11.5126
▁vidya	-11.5128
high	-11.5128
▁tours	-11.5132
▁berth	-11.5137
▁assurances	-11.514
,2016	-11.514
▁138	-11.5141
▁tasks	-11.5143
▁emirates	-11.5143
▁stubble	-11.5143
▁vishwakarma	-11.5144
▁triparti	-11.5144
▁procuring	-11.5144
▁anywhere	-11.5144
▁citizenship	-11.5146
▁gsat	-11.5146
▁leg	-11.5149
▁prone	-11.5157
mis	-11.5157
▁junction	-11.5157
▁easing	-11.5157
▁incentiviz	-11.5164
▁forming	-11.5164
lying	-11.5165
▁ml	-11.5167
▁exporter	-11.5168
▁witnessing	-11.5171
▁12,000	-11.5171
▁min	-11.5172
oo	-11.5172
▁parcel	-11.5172
ura	-11.5174
▁guides	-11.5177
▁permit	-11.5177
▁applicant	-11.5179
2018	-11.5181
▁merger	-11.5185
ological	-11.5185
▁partnering	-11.5186
district	-11.5191
sharing	-11.5192
ko	-11.52
▁instances	-11.5205
▁exhibits	-11.5206
▁allocate	-11.5207
lining	-11.5207
▁deputation	-11.5208
▁essence	-11.5208
▁propulsion	-11.5208
▁unparalleled	-11.5208
▁oversight	-11.5208
▁imposition	-11.5208
▁liquidity	-11.5208
▁niche	-11.5208
▁bprd	-11.5209
▁iocl	-11.5209
.57	-11.5213
▁libraries	-11.5213
▁divided	-11.5216
.49	-11.5216
▁relaxed	-11.5218
▁innovate	-11.522
gi	-11.5222
range	-11.5224
▁coking	-11.5233
▁prison	-11.5234
▁relationships	-11.5236
▁coordinator	-11.5237
▁club	-11.5239
▁awardee	-11.5241
▁counterparts	-11.5241
,300	-11.5249
pat	-11.5249
71	-11.5253
ham	-11.5257
▁positively	-11.5258
▁sit	-11.526
bp	-11.5261
▁108	-11.5265
band	-11.5266
▁championships	-11.5268
▁monument	-11.527
▁comfort	-11.5271
▁aluminium	-11.5272
▁amazon	-11.5272
▁privacy	-11.5272
▁scrutiny	-11.5272
▁minimal	-11.5272
▁realise	-11.5272
▁hs	-11.5277
▁quickly	-11.5281
9,000	-11.5286
▁imparted	-11.5292
400	-11.5292
▁booklet	-11.5298
▁cantonment	-11.5302
▁rte	-11.5303
▁lock	-11.5304
▁tan	-11.5304
▁fabric	-11.5307
▁poise	-11.531
▁sr	-11.5317
▁pathways	-11.5318
nrlm	-11.5321
.78	-11.5329
▁cds	-11.5332
▁4.0,	-11.5332
ok	-11.5333
▁2004-05	-11.5337
▁janaushadhi	-11.5337
▁participatory	-11.5337
▁ioa	-11.5337
▁laser	-11.5337
▁willingness	-11.5338
▁secl	-11.5338
▁occupational	-11.5338
▁disadvantaged	-11.5339
▁reputed	-11.5339
▁expeditiously	-11.5341
▁moderate	-11.5342
▁drill	-11.5342
▁betterment	-11.5343
▁sourcing	-11.5344
▁felicitate	-11.5347
▁shimla	-11.5347
▁portugal	-11.5354
▁financially	-11.536
▁sunday	-11.5363
▁pravin	-11.5365
▁attitude	-11.5369
▁paintings	-11.5371
gg	-11.5372
▁stream	-11.5378
▁babu	-11.5381
▁quintal	-11.5383
when	-11.5388
▁2026	-11.5389
.56	-11.539
▁root	-11.5392
gone	-11.5396
owing	-11.5398
▁barc	-11.5402
▁cbec	-11.5402
▁invaluable	-11.5402
▁warehousing	-11.5402
▁equipping	-11.5402
▁agarwal	-11.5402
tan	-11.5403
▁marathi	-11.5403
par	-11.5403
▁shanti	-11.5403
▁cbm	-11.5404
▁administrator	-11.5408
▁stricter	-11.5409
▁subsidiaries	-11.541
hr	-11.5412
▁categorized	-11.5413
▁belgium	-11.5414
▁rozgar	-11.5415
▁ladies	-11.5416
▁embarked	-11.5416
▁wings	-11.5416
bal	-11.5419
▁tpds	-11.5426
▁height	-11.5427
▁compliant	-11.5427
81	-11.5433
▁spend	-11.5434
nk	-11.5435
▁crash	-11.5438
▁abe	-11.5442
▁carriers	-11.5447
▁winds	-11.5451
▁author	-11.5453
atmanirbhar	-11.5465
▁beautiful	-11.5465
▁nalanda	-11.5468
▁oxygen	-11.5468
▁purview	-11.5468
▁specify	-11.5468
▁sankranti	-11.5468
▁bbbp	-11.5469
▁echs	-11.5469
▁newer	-11.547
▁onions	-11.5479
▁mathura	-11.548
▁underscor	-11.5485
ious	-11.5487
▁nbs	-11.5488
▁say	-11.5489
▁2012.	-11.549
300	-11.5495
tc	-11.5497
▁logistic	-11.5499
▁pitch	-11.5499
▁answer	-11.55
▁lessons	-11.5501
▁adult	-11.5501
▁biofuel	-11.5502
▁eye	-11.5504
gradation	-11.5509
technical	-11.551
▁ho	-11.5521
▁concentrate	-11.553
▁hiv	-11.5531
-22	-11.5532
.88	-11.5532
vishisht	-11.5534
▁uninterrupted	-11.5534
▁chhatrapati	-11.5534
▁jnpt	-11.5535
▁geneva	-11.5535
▁shekhar	-11.5535
ibhai	-11.554
▁multinational	-11.5541
sp	-11.5545
▁representations	-11.5545
▁itc	-11.5547
▁repeal	-11.5549
bc	-11.555
▁trips	-11.5551
▁explain	-11.5552
▁acharya	-11.5557
▁4000	-11.5559
▁winner	-11.5569
inr	-11.5573
▁semiconductors	-11.5577
rred	-11.5583
▁raja	-11.5583
▁spices	-11.5592
▁il	-11.5598
▁anchor	-11.5601
▁batteries	-11.5601
▁thriving	-11.5601
▁infusion	-11.5601
▁andolan	-11.5601
▁chess	-11.5602
▁naam	-11.5602
▁finalize	-11.5603
▁1962	-11.5604
▁transported	-11.5605
▁sahib	-11.5605
▁10-	-11.561
▁khel	-11.5615
▁mmd	-11.5618
▁saved	-11.5618
▁advances	-11.5621
track	-11.5623
▁pra	-11.5623
▁remind	-11.5627
▁chana	-11.5628
▁sourced	-11.5646
▁toys	-11.5647
grid	-11.5648
.96	-11.5652
ou	-11.5656
violence	-11.5657
▁mrp	-11.566
▁kv	-11.5662
▁preside	-11.5665
▁backgrounds	-11.5666
▁vivek	-11.5668
▁bovine	-11.5668
▁pmjdy	-11.5668
▁telugu	-11.5668
▁ambit	-11.5668
▁nanak	-11.5668
▁leap	-11.5668
▁rock	-11.5669
▁regardless	-11.567
▁unemployment	-11.5673
owned	-11.5674
▁finalization	-11.5674
▁2018-19,	-11.5674
▁vadodara	-11.5676
▁proved	-11.5676
af	-11.5679
▁di	-11.5679
▁mail	-11.5679
book	-11.568
son	-11.5686
▁nair	-11.5694
▁horticultural	-11.5695
89	-11.5695
▁cert	-11.5699
▁outbreak	-11.5704
▁actor	-11.5709
▁pdf	-11.571
▁ray	-11.5713
dev	-11.5715
mumbai	-11.5726
▁sl	-11.573
▁102	-11.5731
▁crowd	-11.5736
▁cardiovascular	-11.5736
▁defexpo	-11.5736
▁harmonious	-11.5736
▁inherent	-11.5736
▁qualitative	-11.5736
▁sampla	-11.5736
▁enforce	-11.5736
.06	-11.5736
▁automatically	-11.5737
▁indeed	-11.5737
▁shortlisted	-11.5739
▁greener	-11.5739
▁sha	-11.5739
▁1947	-11.574
2016	-11.5741
▁partial	-11.5742
▁aiia	-11.5742
▁strictly	-11.5743
▁evacuated	-11.5744
▁103	-11.5744
▁exchang	-11.5747
▁contingents	-11.575
▁minute	-11.575
work	-11.5751
▁mitras	-11.5754
▁informatics	-11.5759
▁returned	-11.5765
▁adarsh	-11.5766
▁frigate	-11.5772
▁waiver	-11.5772
▁petrochemical	-11.5784
▁contained	-11.5784
▁grades	-11.5787
▁sop	-11.579
▁1999	-11.5793
aw	-11.5794
▁dip	-11.5794
▁2021-22,	-11.5795
kisan	-11.5797
round	-11.5802
▁brahma	-11.5803
▁indradhanush	-11.5804
▁accompany	-11.5804
▁scarcity	-11.5804
▁pvsm	-11.5804
▁norway	-11.5804
▁iisf	-11.5804
▁gslv	-11.5804
▁2.0,	-11.5806
▁villagers	-11.5811
2024	-11.5814
tar	-11.5815
▁hmt	-11.5815
▁ask	-11.5817
cb	-11.5818
▁karamcharis	-11.5824
▁succeed	-11.5824
▁rests	-11.5824
▁talked	-11.5827
▁underwater	-11.583
▁stemm	-11.5832
aatmanirbhar	-11.5835
▁actionable	-11.5837
▁foodgrain	-11.5842
▁mahal	-11.5842
▁mandi	-11.5844
▁aqi	-11.5845
▁2025-26.	-11.5846
▁3-	-11.5847
▁balanc	-11.5848
▁peoples	-11.5854
700	-11.5856
ver	-11.5858
▁booked	-11.5858
▁touche	-11.5867
▁je	-11.5868
▁applies	-11.5872
▁fourteen	-11.5872
▁minster	-11.5872
▁residing	-11.5872
▁gauba	-11.5872
▁penetration	-11.5872
▁drainage	-11.5872
▁4.5	-11.5879
▁modal	-11.5881
▁considerations	-11.5883
▁ncds	-11.5884
▁taj	-11.5884
▁erosion	-11.5885
▁vans	-11.5885
.43	-11.5887
▁mysuru	-11.5887
▁screened	-11.5888
▁indonesian	-11.5889
▁publishing	-11.5897
▁curat	-11.5898
▁2024-25.	-11.5898
▁compost	-11.5906
▁transplant	-11.591
▁-19	-11.591
▁citation	-11.5911
▁unsta	-11.592
▁lake	-11.5923
▁reflection	-11.5925
▁cow	-11.5928
▁newspapers	-11.5929
-21	-11.5931
▁solve	-11.5933
june	-11.5935
▁ganges	-11.5937
our	-11.5937
▁concurrent	-11.5938
▁might	-11.5939
ounted	-11.594
▁gowda	-11.5941
▁saturday	-11.5941
sagar	-11.5953
▁laundering	-11.5962
▁pakistani	-11.5964
pp	-11.5967
▁andor	-11.5968
▁southeast	-11.5971
▁disclosed	-11.5974
uri	-11.5977
▁trusted	-11.5979
▁cit	-11.598
▁treat	-11.5981
▁yes	-11.5985
ug	-11.5988
▁sez	-11.5998
▁po	-11.6
regional	-11.6006
city	-11.6007
kh	-11.601
▁anemia	-11.6011
▁fertility	-11.6011
▁initiating	-11.6011
▁remedial	-11.6011
▁spectacular	-11.6011
▁compilation	-11.6011
▁optimization	-11.6011
▁proceeds	-11.6012
▁degradation	-11.6012
▁ekta	-11.6012
▁dave	-11.6013
▁notably	-11.6013
▁igst	-11.6015
▁obsolete	-11.6015
▁kan	-11.6016
▁chopra	-11.6022
▁proven	-11.6026
▁consultants	-11.6028
▁complement	-11.6033
party	-11.6038
▁crc	-11.6043
▁seat	-11.6045
97	-11.605
▁listing	-11.6058
▁compliment	-11.6064
▁ssc	-11.6074
green	-11.6076
▁approximate	-11.6077
▁illness	-11.608
▁insurgency	-11.608
▁doppw	-11.6081
▁kailash	-11.6081
▁purnima	-11.6081
▁limestone	-11.6081
▁choose	-11.6081
▁hfwcovid	-11.6081
▁bhabha	-11.6081
▁cghs	-11.6081
▁glory	-11.6081
▁oils	-11.6082
▁stranded	-11.6082
▁jual	-11.6082
tating	-11.6084
▁surrogacy	-11.609
▁complexes	-11.6091
▁undergraduate	-11.6094
ava	-11.6102
▁roy	-11.6103
▁lift	-11.6106
▁mord	-11.6108
▁bankers	-11.6111
.93	-11.6113
▁seci	-11.6114
▁density	-11.6115
▁write	-11.6122
▁condolence	-11.6123
▁protein	-11.613
▁gm	-11.6132
▁6.5	-11.6133
▁na	-11.6134
▁sensitize	-11.6148
▁images	-11.6151
▁artillery	-11.6151
▁combining	-11.6151
▁indices	-11.6151
▁diversified	-11.6151
▁ferry	-11.6151
▁agrawal	-11.6151
▁banana	-11.6152
▁corrective	-11.6152
▁750	-11.6154
▁bharatmala	-11.6154
▁iffi	-11.6158
▁arena	-11.6161
▁mota	-11.6163
toilets	-11.6165
▁respects	-11.6166
▁describ	-11.6166
▁desh	-11.617
▁png	-11.6174
▁foreigners	-11.6175
ung	-11.6179
nirbhaya	-11.6179
91	-11.6181
▁unacc	-11.6184
▁consequent	-11.6188
▁estimation	-11.6193
▁warship	-11.6195
▁dprs	-11.6197
▁bali	-11.6199
▁fc	-11.6201
▁addl	-11.6202
election	-11.6203
▁doctor	-11.6204
active	-11.6204
▁civilization	-11.6205
▁sangeet	-11.6205
▁belief	-11.6206
ima	-11.6208
▁ya	-11.6211
tourism	-11.6215
sustaining	-11.6218
▁iip	-11.6218
▁clearing	-11.622
▁bench	-11.6221
ganj	-11.6221
▁jail	-11.6221
▁bauxite	-11.6222
▁electrify	-11.6222
▁intensify	-11.6222
▁kannada	-11.6222
▁observatory	-11.6222
▁negd	-11.6222
▁awaas	-11.6222
▁paving	-11.6222
▁multilingual	-11.6222
▁kabir	-11.6224
▁credentials	-11.6226
▁loco	-11.6227
▁vaidya	-11.6231
▁wins	-11.6232
▁characteristics	-11.6235
▁orop	-11.6237
▁charged	-11.6238
▁114	-11.626
▁2010.	-11.6261
▁mop	-11.6268
▁undergo	-11.627
.15	-11.6273
.89	-11.6274
▁param	-11.6274
▁economics	-11.6275
ure	-11.6276
▁restrict	-11.6277
tion	-11.6278
▁divyangjans	-11.6281
may	-11.6283
▁haveli	-11.6286
▁impress	-11.6291
▁john	-11.6293
▁assocham	-11.6293
▁qualities	-11.6293
▁regulating	-11.6293
▁suspension	-11.6293
▁vinod	-11.6293
▁pocso	-11.6293
▁emergence	-11.6293
▁cepa	-11.6294
▁nsdf	-11.6294
▁temperatures	-11.6294
▁devoted	-11.6295
▁seismic	-11.6299
fs	-11.6302
▁feasible	-11.6305
▁believes	-11.6307
▁jn	-11.6316
▁formula	-11.6317
▁static	-11.6321
▁coin	-11.6322
▁br	-11.6329
▁2500	-11.6331
▁mses	-11.6332
▁prototype	-11.6338
▁jaya	-11.6339
▁predict	-11.634
.23	-11.634
▁vijaya	-11.6341
▁mart	-11.6346
od	-11.6348
▁collecting	-11.6349
▁delight	-11.6349
▁bengali	-11.6351
▁lalit	-11.6353
▁claimed	-11.6356
▁ksdpkbk	-11.6365
▁assumption	-11.6365
▁caqm	-11.6365
▁enough	-11.6365
▁genome	-11.6365
▁observing	-11.6365
▁aquatic	-11.6365
▁mdoner	-11.6365
▁sushma	-11.6365
▁boundaries	-11.6366
▁patriotic	-11.6366
▁gur	-11.6366
▁infra	-11.6366
▁cgd	-11.6368
-7	-11.6368
▁snow	-11.6368
▁meditation	-11.6371
▁matching	-11.6374
my	-11.6374
▁evaluated	-11.6374
▁belarus	-11.6374
files	-11.6378
▁grp	-11.6378
gn	-11.6382
.47	-11.6384
care	-11.6386
▁unveil	-11.6386
▁tir	-11.6387
▁ibm	-11.639
▁pwd	-11.6394
▁adip	-11.6398
nc	-11.6399
79	-11.6399
▁bit	-11.6406
era	-11.6408
▁endeavor	-11.6411
▁picture	-11.6411
▁felicitation	-11.6411
▁regulator	-11.6412
.87	-11.6412
▁allowances	-11.6414
▁redress	-11.6419
mile	-11.6423
.58	-11.6429
▁adm	-11.6429
dhar	-11.6433
▁nav	-11.6435
▁coinciding	-11.6438
▁credibility	-11.6438
▁stealth	-11.6438
▁enactment	-11.6438
▁formulating	-11.6438
▁consciousness	-11.6438
▁unfair	-11.6438
▁patrolling	-11.6438
▁prasar	-11.6439
▁vandana	-11.6439
▁amidst	-11.644
▁ysk	-11.644
au	-11.6441
▁tajikistan	-11.6442
▁pure	-11.6442
▁tracked	-11.6444
▁runway	-11.6444
▁ride	-11.6444
▁ioc	-11.6445
▁1600	-11.6446
▁empanelled	-11.6447
comp	-11.6447
▁bh	-11.6448
▁czech	-11.6448
▁sick	-11.6448
▁vihar	-11.6449
five	-11.645
▁40,000	-11.6451
dm	-11.6452
▁suman	-11.6455
▁nil	-11.6456
.42	-11.6458
▁teli	-11.646
.03	-11.6464
▁icc	-11.6466
▁piracy	-11.6471
▁seekers	-11.6477
▁fishers	-11.6478
▁frontier	-11.6484
▁arriv	-11.6485
▁deposited	-11.6487
▁choices	-11.6503
▁devotion	-11.6508
▁fifty	-11.6511
▁darjeeling	-11.6511
▁vgf	-11.6511
▁fought	-11.6511
▁glad	-11.6512
▁hassle	-11.6513
▁signals	-11.6515
▁digi	-11.6516
▁promptly	-11.652
▁1951	-11.6521
▁poster	-11.6523
▁ticketing	-11.6527
5000	-11.6535
20,000	-11.6537
▁cape	-11.6538
▁experimental	-11.6538
stage	-11.6539
▁dealers	-11.6541
▁samarth	-11.6546
▁promise	-11.6552
▁carpet	-11.6558
mr	-11.6568
▁soldier	-11.657
.71	-11.6579
▁biennial	-11.6581
▁aeronautics	-11.6584
▁jordan	-11.6584
▁literary	-11.6584
▁nipccd	-11.6584
▁thirteen	-11.6584
▁turkey	-11.6584
construction	-11.6585
▁cbg	-11.6585
▁pusa	-11.6585
▁incorporation	-11.6586
▁admitted	-11.6586
▁nmp	-11.6588
▁vishakhapatnam	-11.6588
▁chaturvedi	-11.659
▁mohammed	-11.659
▁statehood	-11.6591
section	-11.6592
▁screen	-11.66
all	-11.6605
▁fellows	-11.6605
▁promises	-11.661
.77	-11.6614
▁hosts	-11.6615
▁promotions	-11.6616
▁capf	-11.6628
▁scholar	-11.6633
▁publicly	-11.665
▁npas	-11.6652
▁grass	-11.6658
▁proposing	-11.6658
▁acute	-11.6658
vk	-11.6658
▁abdm	-11.6659
▁cheaper	-11.666
▁blast	-11.666
▁matches	-11.6661
▁palm	-11.6663
-12	-11.6663
▁madagascar	-11.6664
▁guards	-11.6666
▁denmark	-11.6669
▁cc	-11.667
▁dollar	-11.6673
hra	-11.6673
▁stalled	-11.6678
▁quot	-11.6679
▁1940	-11.6679
▁died	-11.668
pu	-11.6687
▁salt	-11.6689
-6	-11.6692
▁mobilize	-11.6694
▁cha	-11.6695
▁temples	-11.6696
▁1.3	-11.6697
▁roots	-11.6697
▁sikh	-11.6701
▁cheetah	-11.6708
▁rocket	-11.6708
▁judgment	-11.6708
▁concessionaire	-11.6708
▁nad	-11.671
▁apa	-11.6716
▁disrupt	-11.6716
tropic	-11.6731
▁amcdrr	-11.6733
▁buddhism	-11.6733
▁occurrence	-11.6733
▁discoveries	-11.6733
▁separation	-11.6733
▁bpcl	-11.6733
▁array	-11.6733
▁methanol	-11.6734
school	-11.6736
▁1992	-11.6736
south	-11.6738
world	-11.6738
gram	-11.6739
▁campuses	-11.674
▁haridwar	-11.6741
▁item	-11.6742
▁2027	-11.6742
▁labourers	-11.6745
▁educated	-11.6749
▁fencing	-11.675
▁appliances	-11.6752
cp	-11.6752
▁malik	-11.6767
▁setu	-11.6767
▁stamps	-11.6772
2014	-11.678
▁sewer	-11.6782
▁ill	-11.6787
▁infection	-11.6789
▁pr	-11.6791
▁confirm	-11.6791
▁hearts	-11.6794
-2022	-11.6795
▁residue	-11.6796
nal	-11.6797
cast	-11.6797
▁118	-11.6797
▁academies	-11.6808
▁contractual	-11.6808
gs	-11.6808
▁mausam	-11.6808
▁telemedicine	-11.6808
▁sangma	-11.6809
▁prevalent	-11.6809
▁tds	-11.6811
marketplace	-11.6813
,000	-11.6814
2.00	-11.6816
▁honored	-11.6816
▁bilaspur	-11.682
▁captured	-11.6821
▁panama	-11.6821
▁api	-11.6822
▁drafting	-11.6823
▁hazards	-11.6826
▁nct	-11.6826
▁executives	-11.6827
▁freed	-11.6827
▁utilised	-11.6829
pt	-11.6833
▁speeches	-11.6834
▁panda	-11.6835
▁tablets	-11.6837
▁4,000	-11.6838
2.5	-11.6839
▁kashmiri	-11.684
▁1985	-11.6842
▁drip	-11.6842
▁atc	-11.6847
▁inspector	-11.6849
ina	-11.6852
▁atms	-11.6855
▁suggestion	-11.6861
▁scenarios	-11.6867
▁foundational	-11.687
run	-11.6871
▁1989	-11.6872
▁breaks	-11.6878
▁migrants	-11.688
authorised	-11.6881
▁decide	-11.6883
▁quest	-11.6884
▁nsqf	-11.6884
▁steadfast	-11.6884
▁candidature	-11.6884
▁mopsw	-11.6884
▁judicious	-11.6884
▁benami	-11.6884
▁blessed	-11.6884
▁mohali	-11.6884
▁odop	-11.6884
▁shock	-11.6884
▁maize	-11.6885
▁interlinking	-11.6885
▁oldest	-11.6888
▁strategically	-11.6889
600	-11.689
▁um	-11.689
▁finalised	-11.6891
-2020	-11.6892
▁searches	-11.6893
▁designation	-11.6893
▁ordinary	-11.6894
▁coimbatore	-11.6895
▁iipa	-11.6897
hl	-11.6897
▁saksham	-11.6899
▁verticals	-11.6899
▁compound	-11.6901
▁translate	-11.6902
ward	-11.6902
kmn	-11.6904
▁dances	-11.6912
▁warships	-11.6914
▁sezs	-11.6917
-2014	-11.692
▁visas	-11.6923
▁optimize	-11.6925
▁1.1	-11.6932
▁char	-11.6943
▁pesticides	-11.6943
▁elevate	-11.6958
▁dhabi	-11.696
▁homoeopathic	-11.696
▁mgnregs	-11.696
▁nautical	-11.696
▁insured	-11.696
▁scrapping	-11.696
▁queen	-11.696
▁wastage	-11.696
▁arora	-11.696
▁desai	-11.6961
▁jwg	-11.6961
▁ramdas	-11.6962
▁auditing	-11.6962
▁seas	-11.6969
▁gva	-11.6971
▁gurgaon	-11.6976
filing	-11.6979
dha	-11.6981
▁gathered	-11.6984
.59	-11.6992
▁anticipate	-11.6992
▁songs	-11.6995
ical	-11.6998
▁locally	-11.7002
▁dea	-11.7003
▁abha	-11.7006
▁pali	-11.7007
▁basins	-11.7011
▁socially	-11.7012
▁metals	-11.7017
▁tongue	-11.7024
▁circle	-11.7032
▁shelters	-11.7032
▁pande	-11.7034
▁distinct	-11.7036
▁efficacy	-11.7037
▁levied	-11.7037
▁thursday	-11.7037
▁mahindra	-11.7037
▁surcharge	-11.7037
▁commendation	-11.7038
▁restructured	-11.7039
▁civilizational	-11.704
▁mainstreaming	-11.704
▁nppa	-11.7041
▁appropriation	-11.7041
▁wards	-11.7041
▁exemplified	-11.7041
▁sleeper	-11.7043
▁1952	-11.7047
▁pet	-11.705
▁navigational	-11.705
▁israeli	-11.7051
▁godavari	-11.7052
▁interpretation	-11.7052
▁proactively	-11.7052
▁sat	-11.7055
▁respected	-11.7064
food	-11.7065
▁conscious	-11.707
▁370	-11.7072
▁god	-11.7074
▁adc	-11.7075
▁jet	-11.7076
▁inflow	-11.7084
▁bu	-11.7087
▁petition	-11.7093
▁headquarter	-11.7094
▁gig	-11.7094
▁shashi	-11.7105
lam	-11.7107
let	-11.7112
▁ourselves	-11.7115
▁swayam	-11.7115
▁abatement	-11.7115
▁liters	-11.7115
▁outsourcing	-11.7115
▁handbook	-11.7117
▁deaf	-11.7117
▁retailers	-11.7119
▁encouragement	-11.7119
ei	-11.7121
▁loc	-11.7121
public	-11.7123
▁moa	-11.7123
▁chemistry	-11.7123
assuring	-11.7124
-31	-11.7125
▁tone	-11.7126
▁nift	-11.7127
▁170	-11.7128
▁mysore	-11.7128
▁cooling	-11.7128
▁impacted	-11.7131
▁jee	-11.7132
▁lifetime	-11.7142
▁af	-11.7144
▁mathematics	-11.7144
▁declarations	-11.7153
▁explains	-11.7153
ries	-11.7153
▁forge	-11.7155
placing	-11.7164
▁240	-11.717
▁consignment	-11.7171
▁sme	-11.7173
▁envision	-11.7177
▁habits	-11.7178
▁6,000	-11.7179
.29	-11.718
▁creators	-11.7182
rm	-11.7187
▁choudhary	-11.7193
▁colombo	-11.7193
▁kulaste	-11.7193
▁methane	-11.7193
▁mohamed	-11.7193
▁synergies	-11.7193
▁beacon	-11.7193
▁discourse	-11.7193
▁repatriation	-11.7193
▁experiments	-11.7193
▁peripheral	-11.7193
▁nepalese	-11.7194
▁jnu	-11.7196
▁1.8	-11.7196
▁hailed	-11.72
business	-11.7204
sabka	-11.7205
▁bottom	-11.7206
▁clothing	-11.7207
▁np	-11.7208
▁speak	-11.7214
▁kvs	-11.7215
▁advis	-11.7218
▁governmental	-11.7233
▁saying	-11.7235
▁unlock	-11.7237
lt	-11.7238
▁printed	-11.7248
▁2019-20.	-11.7249
,900	-11.725
▁holi	-11.7271
▁backdrop	-11.7272
▁quantities	-11.7272
▁trauma	-11.7272
▁tangible	-11.7272
▁mbbs	-11.7272
▁bipin	-11.7272
▁downstream	-11.7272
▁carries	-11.7272
▁mmtpa	-11.7273
▁purchases	-11.7279
▁suspected	-11.7279
▁madurai	-11.7279
▁writers	-11.728
▁honourable	-11.728
▁suffered	-11.7281
▁145	-11.7281
▁auditor	-11.7285
puri	-11.7287
▁lawyers	-11.7288
▁jabalpur	-11.7289
▁yearly	-11.731
▁2013-14.	-11.7315
▁2004,	-11.7316
funded	-11.7325
▁facilitator	-11.7334
▁pvtgs	-11.7335
▁consultant	-11.7337
cap	-11.7339
▁yemen	-11.7343
▁reductions	-11.7345
▁rp	-11.7347
74	-11.7349
▁favour	-11.735
▁miles	-11.7351
▁argentina	-11.7351
▁conviction	-11.7351
▁enquiry	-11.7351
▁substitution	-11.7351
▁imprint	-11.7351
▁monetization	-11.7351
▁harmful	-11.7351
oli	-11.7351
▁ccpa	-11.7351
▁profitability	-11.7352
▁shareholding	-11.7352
▁digitized	-11.7355
▁decentralized	-11.7355
▁fulfilled	-11.7357
▁atmospheric	-11.7357
▁murugan	-11.7361
▁excel	-11.7362
▁mayor	-11.7362
back	-11.7362
▁seriously	-11.7362
▁kharagpur	-11.7363
▁mars	-11.7364
pmjay	-11.7365
▁wood	-11.7369
smart	-11.7372
▁journals	-11.7372
▁himalayas	-11.7374
▁consequences	-11.7375
▁count	-11.7379
▁meaning	-11.7382
ez	-11.7389
cm	-11.74
▁feeding	-11.7407
▁indicat	-11.7407
▁reactor	-11.7412
▁disruption	-11.7412
▁mor	-11.7415
▁60,000	-11.7418
▁ganesh	-11.7426
▁precise	-11.7427
▁culminate	-11.7428
▁applying	-11.743
▁backbone	-11.7431
▁dwivedi	-11.7431
▁injury	-11.7431
▁perishable	-11.7431
▁tokyo	-11.7431
▁vending	-11.7431
▁clarity	-11.7431
▁nsic	-11.7431
▁unicef	-11.7431
▁surgery	-11.7431
▁niif	-11.7432
▁dsir	-11.7432
▁comparative	-11.7432
▁benches	-11.7432
▁slightly	-11.7432
▁parsi	-11.7433
▁airborne	-11.7436
▁pose	-11.7437
▁whenever	-11.7442
▁validated	-11.7442
▁nits	-11.7442
▁italian	-11.7442
abad	-11.7445
september	-11.7447
▁pursued	-11.7448
▁2-	-11.7451
▁hazard	-11.7451
▁139	-11.7453
▁eliminated	-11.7454
▁shell	-11.7454
▁svanidhi	-11.7459
120	-11.7463
▁reinforced	-11.7467
▁commemorated	-11.7468
▁mandis	-11.7475
▁switch	-11.7475
-10	-11.7477
▁2003.	-11.7483
app	-11.7484
▁iso	-11.7487
.13	-11.7491
▁naga	-11.7492
▁prescribe	-11.7494
▁embark	-11.7495
▁photos	-11.7496
start	-11.7496
▁encompasse	-11.7504
rv	-11.7505
▁mirror	-11.7512
▁afghan	-11.7512
▁embracing	-11.7512
▁nmdfc	-11.7512
▁patiala	-11.7512
▁sahitya	-11.7512
▁shipbuilders	-11.7512
▁autism	-11.7512
▁siachen	-11.7512
▁noteworthy	-11.7512
▁compassionate	-11.7512
▁tcil	-11.7513
▁gradually	-11.7513
shree	-11.7514
▁amr	-11.7519
▁wants	-11.752
▁dead	-11.752
risen	-11.7523
yojana	-11.7524
▁fostered	-11.7526
security	-11.7527
▁bow	-11.7528
▁originally	-11.7531
▁bp	-11.7534
▁coalfields	-11.7537
▁viewed	-11.7544
▁dispatched	-11.7547
▁streams	-11.7554
▁diversify	-11.7558
▁dia	-11.7559
▁hunar	-11.7559
▁sops	-11.756
▁polar	-11.7569
▁glacier	-11.7575
▁crown	-11.7576
▁electro	-11.7582
▁marching	-11.7586
▁1.2	-11.7587
▁lands	-11.7587
▁simultaneous	-11.7589
▁beautification	-11.7593
▁blessings	-11.7593
▁crematoria	-11.7593
▁intangible	-11.7593
▁pharmacopoeia	-11.7593
▁synthetic	-11.7593
▁temporarily	-11.7593
▁trigger	-11.7593
▁verified	-11.7593
▁vikrant	-11.7593
▁restoring	-11.7593
▁gesture	-11.7593
▁competency	-11.7593
▁igot	-11.7593
▁pawan	-11.7593
▁bhel	-11.7593
▁fear	-11.7594
▁fallen	-11.7594
▁culmination	-11.7594
▁offline	-11.7596
▁2100	-11.76
▁withdrawn	-11.7601
▁restored	-11.7602
▁desert	-11.7603
▁progressively	-11.7603
vo	-11.7606
▁failed	-11.7606
▁sanctions	-11.7606
▁coarse	-11.7607
are	-11.7609
submarine	-11.7611
social	-11.7611
from	-11.7613
▁lao	-11.7613
▁vijayawada	-11.7615
phil	-11.7618
▁derived	-11.7619
▁irs	-11.7625
tha	-11.7626
▁recommends	-11.7628
guru	-11.7635
▁symboliz	-11.7636
▁integrates	-11.7639
▁empowers	-11.7642
oning	-11.7642
▁regards	-11.7644
▁exporting	-11.7645
added	-11.7649
.68	-11.7653
▁shortfall	-11.7657
▁aiml	-11.7661
.17	-11.7666
▁impose	-11.7667
▁wear	-11.7669
▁vendor	-11.7671
▁athawale	-11.7675
▁contingency	-11.7675
▁kandla	-11.7675
▁praveen	-11.7675
▁132	-11.7675
▁rabindra	-11.7675
▁android	-11.7675
▁charcha	-11.7675
▁intensified	-11.7675
▁hiring	-11.7675
▁unreserved	-11.7675
▁cdsco	-11.7675
▁eventually	-11.7676
▁liberalization	-11.7676
▁zeal	-11.7676
▁sadak	-11.7676
▁dadra	-11.7676
▁displaced	-11.7676
aggan	-11.7677
▁1994	-11.7677
▁competing	-11.7678
▁1987	-11.7678
▁182	-11.7679
▁tissue	-11.768
▁fortification	-11.7682
▁barges	-11.7682
▁surgical	-11.7684
▁evs	-11.7685
▁220	-11.7687
▁piped	-11.7687
▁swap	-11.7691
▁104	-11.7692
▁sonar	-11.7704
▁finaliz	-11.7707
▁chart	-11.7711
▁declar	-11.7715
▁credits	-11.7718
▁permits	-11.772
▁intake	-11.7721
▁2010,	-11.7722
ow	-11.7722
▁converted	-11.7723
tro	-11.7725
singh	-11.7735
▁sen	-11.7736
▁depots	-11.7736
▁mki	-11.7737
▁admissions	-11.7739
▁commercially	-11.7743
▁communiqu	-11.7752
▁sarovar	-11.7753
▁hydrocarbons	-11.7755
▁samir	-11.7757
▁dornier	-11.7758
▁enormous	-11.7758
▁heavily	-11.7758
▁kushwaha	-11.7758
▁tewari	-11.7758
▁ncgg	-11.7758
▁blockchain	-11.7758
▁fillip	-11.7758
▁kirti	-11.7758
▁complementary	-11.7759
▁defend	-11.7759
▁suspended	-11.776
▁attributes	-11.7763
▁poorest	-11.7763
▁gandhiji	-11.7764
▁promised	-11.7765
▁bhilai	-11.7766
.74	-11.7767
▁namibia	-11.7767
▁morale	-11.7773
▁settlements	-11.7773
dumping	-11.7778
window	-11.7778
profit	-11.7779
▁stc	-11.778
▁flooding	-11.7781
▁progressing	-11.7781
▁putin	-11.7783
-2017	-11.7787
▁conflicts	-11.7789
▁nas	-11.78
uni	-11.7803
▁nri	-11.7809
▁chancellors	-11.7811
▁opt	-11.7812
▁neighbourhood	-11.7814
▁attraction	-11.7829
market	-11.7829
▁journalist	-11.783
pra	-11.7835
aya	-11.7838
▁potato	-11.784
▁bangkok	-11.7841
▁deprived	-11.7841
▁evaluating	-11.7841
▁evident	-11.7841
▁refining	-11.7841
▁steady	-11.7841
▁segregation	-11.7841
▁vishnu	-11.7841
▁unfccc	-11.7841
▁glass	-11.7841
▁kapoor	-11.7842
▁dhyan	-11.7842
▁neva	-11.7842
▁functionality	-11.7842
▁mice	-11.7843
▁jica	-11.7844
▁outdoor	-11.7844
▁rmsa	-11.7844
▁doha	-11.7845
▁dtaa	-11.7845
▁khare	-11.7848
▁noc	-11.7848
aktsh	-11.7849
▁achievers	-11.7853
▁departed	-11.7853
▁countrymen	-11.7858
▁dhaka	-11.7859
▁daf	-11.7861
energy	-11.7862
▁contractor	-11.7863
▁nis	-11.7864
▁oems	-11.7867
▁highness	-11.7869
invest	-11.7869
▁frauds	-11.7873
its	-11.7879
▁nepali	-11.7885
▁tie	-11.7885
▁kilometres	-11.7886
▁drilling	-11.7886
▁cultures	-11.7886
▁layer	-11.7887
ray	-11.7893
▁117	-11.7899
.52	-11.7908
▁expedited	-11.7912
▁rake	-11.7913
▁legislatures	-11.7913
▁restriction	-11.7916
▁lacking	-11.7916
▁bag	-11.7918
▁barauni	-11.7925
▁inquiries	-11.7925
▁kerosene	-11.7925
▁purchasing	-11.7925
▁remedies	-11.7925
▁vehicular	-11.7925
▁nutritious	-11.7925
▁updating	-11.7925
▁imprisonment	-11.7925
▁little	-11.7925
▁meanwhile	-11.7925
▁upstream	-11.7927
.73	-11.7928
jpg	-11.7929
▁delegated	-11.7929
▁baseline	-11.793
▁akt	-11.7933
▁banned	-11.7935
▁1950	-11.7939
▁kartavya	-11.7939
▁naxal	-11.7945
cultural	-11.7947
▁forced	-11.7947
▁declined	-11.7949
weather	-11.7949
▁feeder	-11.795
▁boarding	-11.795
▁compensator	-11.7953
▁owner	-11.7954
▁fix	-11.7958
sub	-11.7959
▁pi	-11.796
▁ions	-11.7962
.41	-11.7963
▁debit	-11.7966
ore	-11.7968
▁poll	-11.7972
▁15-	-11.7972
▁possess	-11.7983
▁curricula	-11.7985
▁execut	-11.799
▁ep	-11.7995
▁truck	-11.7996
▁230	-11.7997
kat	-11.7997
eshwar	-11.7999
pro	-11.8
▁guarantees	-11.8002
▁checking	-11.8006
▁prem	-11.8007
▁warming	-11.8009
▁superior	-11.8009
▁anaemia	-11.801
▁dental	-11.801
▁mishap	-11.801
▁olympiad	-11.801
▁continuity	-11.801
▁wireless	-11.801
▁journalism	-11.801
▁ramayana	-11.8011
▁elite	-11.8011
▁parity	-11.8011
▁secc	-11.8012
▁computerization	-11.8012
▁bagg	-11.8012
▁upfront	-11.8013
rian	-11.8014
▁helpful	-11.8016
▁talents	-11.8019
▁2003,	-11.8019
▁anrf	-11.8022
▁varma	-11.8022
▁communicated	-11.8022
▁gujarati	-11.8023
▁pair	-11.8024
training	-11.8025
gaon	-11.8025
▁sushil	-11.8027
▁hind	-11.8028
▁tropical	-11.8029
▁dham	-11.803
electrified	-11.8035
▁movements	-11.8035
rl	-11.8036
▁ramp	-11.8036
▁realization	-11.8039
▁inculcate	-11.8044
kyc	-11.8046
▁mc	-11.8047
▁ncd	-11.8047
,00,000	-11.8048
▁treating	-11.8053
▁rt	-11.806
▁fest	-11.806
▁organs	-11.8069
ghat	-11.8075
▁134	-11.8075
▁adds	-11.8076
▁nb	-11.8084
▁systemic	-11.8085
▁adalats	-11.8088
▁lo	-11.809
▁du	-11.8091
▁molecular	-11.8095
▁testimony	-11.8095
▁whatsapp	-11.8095
▁dependency	-11.8095
▁podium	-11.8095
▁sekhar	-11.8095
▁bihu	-11.8096
▁mahajan	-11.8096
▁quad	-11.8096
gam	-11.8097
▁burge	-11.8098
▁teamwork	-11.8098
▁steam	-11.8101
▁dispensaries	-11.8107
▁sailors	-11.811
▁karyakram	-11.8111
▁ambulances	-11.8112
dustrialization	-11.8114
▁graded	-11.8116
borne	-11.8118
medical	-11.8121
chairman	-11.8123
▁sumit	-11.8134
▁organizational	-11.8134
▁jul	-11.8137
▁550	-11.8139
▁tribals	-11.814
▁sree	-11.815
▁careers	-11.815
▁pensioner	-11.8151
▁objects	-11.8152
▁revenues	-11.8154
▁cast	-11.8155
▁slogan	-11.8158
.21	-11.8158
▁supplying	-11.8159
▁belong	-11.8159
▁vegetable	-11.8169
▁slum	-11.8169
▁dispos	-11.8175
▁recycle	-11.8175
-14	-11.8181
▁cyclonic	-11.8181
▁intermediaries	-11.8181
▁acquiring	-11.8181
▁capturing	-11.8181
▁semen	-11.8182
▁biology	-11.8182
▁biodiesel	-11.8182
▁nhdp	-11.8183
▁124	-11.8184
▁aeronautical	-11.8187
▁1990	-11.8187
.66	-11.8188
▁weighing	-11.8191
▁upward	-11.8192
▁nris	-11.8199
dded	-11.8207
▁xv	-11.8208
technology	-11.8209
ill	-11.821
▁rdss	-11.8211
income	-11.8212
▁bhim	-11.8212
▁0.5	-11.8212
▁deeds	-11.8217
▁seeding	-11.8223
mat	-11.8225
▁trucks	-11.8234
▁holidays	-11.8238
▁audited	-11.8238
▁109	-11.824
kan	-11.8241
palli	-11.8243
▁ris	-11.8246
▁dpi	-11.8254
▁concentration	-11.8255
ao	-11.8255
▁occur	-11.8255
▁sapling	-11.8256
▁hp	-11.8262
▁comprehensively	-11.8262
jeet	-11.8267
▁nellore	-11.8268
▁unilateral	-11.8268
▁vbsy	-11.8268
▁weightlifting	-11.8268
▁mughal	-11.8268
▁tatkal	-11.8268
▁latin	-11.8268
▁decisive	-11.8268
▁palace	-11.8268
▁copyright	-11.8268
▁maitri	-11.8268
▁refinance	-11.827
bank	-11.827
▁ghana	-11.827
▁bomb	-11.8271
▁chowk	-11.8271
▁directive	-11.8271
▁rape	-11.8271
farm	-11.8271
▁agni	-11.8272
▁emrs	-11.8272
▁1970	-11.8272
▁bales	-11.8272
▁revolutionary	-11.8273
▁cso	-11.8274
dy	-11.8274
▁mib	-11.8276
▁difficulty	-11.8278
▁shyam	-11.8281
▁vidyut	-11.8283
▁moca	-11.829
▁operationalized	-11.8293
▁1.6	-11.8296
africa	-11.8298
▁eps	-11.8307
▁examin	-11.8307
iw	-11.8308
1.5	-11.8308
▁guaranteed	-11.8313
▁155	-11.8315
▁grams	-11.832
▁determin	-11.8326
▁reviv	-11.833
▁prs	-11.833
▁forty	-11.8333
ran	-11.8335
▁.0	-11.8335
▁challenged	-11.8338
▁pc	-11.834
▁apis	-11.8346
▁nar	-11.835
▁chronic	-11.8356
▁reputation	-11.8356
▁udyog	-11.8356
▁neeraj	-11.8356
▁ropar	-11.8356
▁sadness	-11.8357
▁padak	-11.8357
ising	-11.8357
▁metropolitan	-11.8361
▁infiltration	-11.8362
▁fiu	-11.8362
▁preferential	-11.8366
.81	-11.8368
▁nccf	-11.837
▁singer	-11.8371
▁ncw	-11.8374
▁ig	-11.8374
▁puja	-11.8375
▁haul	-11.8375
wani	-11.8376
▁cropping	-11.8376
▁guns	-11.8378
▁consulting	-11.8378
▁apprentices	-11.838
▁dm	-11.8381
▁nrc	-11.8383
.82	-11.8384
niscpr	-11.8386
▁style	-11.8386
▁noticed	-11.8388
▁endeavors	-11.8389
.70	-11.839
drive	-11.8393
▁earthquakes	-11.8394
▁1948	-11.8395
▁107	-11.8397
kal	-11.8399
▁raha	-11.84
hy	-11.8402
▁vr	-11.8403
ef	-11.8406
▁deals	-11.8414
▁drains	-11.8419
▁directorates	-11.8421
▁foods	-11.8423
▁fra	-11.843
▁ndc	-11.844
▁sediment	-11.8444
▁attributing	-11.8445
▁debris	-11.8445
▁dockyard	-11.8445
▁investiture	-11.8445
▁npcdcs	-11.8445
▁swimming	-11.8445
▁dinner	-11.8445
▁insightful	-11.8445
▁sinchai	-11.8445
▁islamic	-11.8445
▁possession	-11.8445
▁mustard	-11.8445
▁npcil	-11.8446
▁orissa	-11.8446
▁saras	-11.8446
▁vishwas	-11.8448
▁grit	-11.8449
▁thereunder	-11.8449
▁eez	-11.8451
▁applauded	-11.8454
▁rent	-11.8455
▁overcom	-11.8457
▁jat	-11.8459
ncr	-11.8464
▁ce	-11.8469
▁farms	-11.8469
pura	-11.8469
▁classified	-11.847
▁policymaking	-11.847
▁seller	-11.8473
commercial	-11.8478
▁lu	-11.8479
▁144	-11.848
dac	-11.8486
▁escort	-11.8487
▁landslides	-11.8496
skill	-11.8501
▁meta	-11.8501
nar	-11.8504
▁turning	-11.8508
▁vat	-11.8508
▁propose	-11.8509
30,000	-11.851
▁technologically	-11.851
▁observers	-11.8511
▁hopes	-11.8514
▁solving	-11.8522
▁optional	-11.8522
▁parent	-11.8523
▁desk	-11.8528
sonance	-11.8532
▁abundant	-11.8534
▁akashvani	-11.8534
▁experiential	-11.8534
▁indomitable	-11.8534
▁parikrama	-11.8534
▁voluntarily	-11.8534
▁furniture	-11.8534
▁plaque	-11.8534
▁configuration	-11.8534
▁fatalities	-11.8534
▁multiplier	-11.8535
▁1965	-11.8537
▁meis	-11.8537
▁11.30	-11.8538
▁daughters	-11.8539
▁conformity	-11.8543
▁ebp	-11.8543
▁sensor	-11.8543
▁eighth	-11.8548
-29	-11.8548
▁advocate	-11.8549
ws	-11.8552
▁sphere	-11.8562
▁dollars	-11.8564
road	-11.8567
-27	-11.8571
▁wellbeing	-11.8573
▁ve	-11.8578
▁tribunals	-11.8579
▁individually	-11.858
▁officially	-11.8581
▁fog	-11.8586
▁mse	-11.8586
hara	-11.8594
visa	-11.8603
2015	-11.8608
▁movie	-11.8614
▁ambition	-11.8615
fc	-11.8617
7,000	-11.8621
▁1997	-11.8622
▁pavilions	-11.8623
▁authentic	-11.8623
▁eklavya	-11.8624
▁immersive	-11.8624
▁defining	-11.8624
▁jetties	-11.8624
▁harbor	-11.8624
▁defect	-11.863
▁2034	-11.8632
▁adversely	-11.8633
▁rendered	-11.8634
▁rejected	-11.8635
▁kosh	-11.8636
▁dark	-11.8636
▁ga	-11.864
▁js	-11.8642
▁opd	-11.8643
▁properly	-11.8643
than	-11.8644
qua	-11.8645
poor	-11.8645
under	-11.8646
▁gandhian	-11.8647
▁mentor	-11.8654
▁manthan	-11.8659
doping	-11.8659
rn	-11.8663
▁fares	-11.8668
▁safely	-11.867
▁pioneer	-11.867
▁vip	-11.8672
▁cms	-11.8672
2000	-11.8679
▁anant	-11.8681
▁ann	-11.8686
▁rj	-11.8689
can	-11.869
port	-11.8696
▁bagh	-11.8699
▁interesting	-11.87
▁geoscience	-11.8706
▁mean	-11.8706
▁barge	-11.8707
▁utilise	-11.8708
▁entrepreneur	-11.8711
▁thorough	-11.8711
▁writer	-11.8712
▁113	-11.8713
▁bbnkpk	-11.8714
▁ethnic	-11.8714
▁archival	-11.8715
▁mahanadi	-11.8715
▁consulate	-11.8715
▁adityanath	-11.8715
▁amitshah	-11.8715
▁straw	-11.8715
▁anthem	-11.8715
▁poland	-11.8715
,500	-11.8715
▁2002,	-11.8716
▁excessive	-11.8716
▁triple	-11.8717
▁uri	-11.8718
▁mediation	-11.8718
▁pol	-11.8719
▁denied	-11.8722
▁2035	-11.8724
▁moderated	-11.8724
▁compiled	-11.8724
▁hoarding	-11.8728
▁litre	-11.8728
▁optimiz	-11.8733
▁pf	-11.8733
▁waters	-11.8735
▁abdullah	-11.8736
ori	-11.8742
wi	-11.8744
▁rkvy	-11.8744
pos	-11.8745
▁drama	-11.8749
depth	-11.8752
.38	-11.8753
ku	-11.8755
▁replaces	-11.8756
▁ge	-11.8764
▁uploading	-11.8768
▁iari	-11.877
rule	-11.8772
pv	-11.8773
▁inspect	-11.8774
▁photograph	-11.8778
rate	-11.8779
▁rath	-11.878
▁gyan	-11.8782
▁illustrat	-11.8785
▁asw	-11.8787
▁ascertain	-11.879
▁aatmanirbharta	-11.8799
▁disburs	-11.8799
▁tsps	-11.8802
▁confluence	-11.8807
▁destruction	-11.8807
▁chabahar	-11.8807
▁framing	-11.8807
▁ccrh	-11.8807
▁overarching	-11.8807
▁nyaya	-11.8807
▁hunger	-11.8807
▁assault	-11.8807
▁decarbonization	-11.8807
▁nfsm	-11.8807
▁nlcil	-11.8807
▁farakka	-11.8807
▁poet	-11.8808
▁fao	-11.8809
▁rfp	-11.8812
▁pmmy	-11.8814
▁dmf	-11.8814
▁saubhagya	-11.8815
▁incremental	-11.8816
▁gopal	-11.8816
▁masters	-11.8818
▁exciting	-11.882
ica	-11.8821
▁rera	-11.8824
▁360	-11.8825
▁wash	-11.8828
▁dar	-11.8831
▁approve	-11.8834
▁jas	-11.8837
hal	-11.884
gy	-11.8842
▁eradicate	-11.8847
▁administer	-11.8848
▁spatial	-11.8851
▁resort	-11.8852
▁pci	-11.8854
ger	-11.8864
▁faces	-11.887
▁fl	-11.8872
1,0	-11.8876
▁mai	-11.8881
comments	-11.8882
▁tr	-11.8889
▁box	-11.889
▁withdraw	-11.8893
▁unite	-11.8893
▁mlas	-11.8894
▁destroyer	-11.8894
▁saint	-11.8894
▁roadshow	-11.8894
▁competencies	-11.8899
▁eternal	-11.8899
▁jhansi	-11.8899
▁satisfactory	-11.8899
▁sydney	-11.8899
▁lodging	-11.8899
▁irregularities	-11.8899
▁surgeries	-11.8899
▁christian	-11.8899
▁equator	-11.89
▁sumitra	-11.89
▁lhb	-11.89
▁unlike	-11.8901
pdf	-11.8901
▁symbolic	-11.8902
▁8,000	-11.8903
▁speeds	-11.8903
res	-11.8906
▁algeria	-11.8907
west	-11.8909
▁spheres	-11.8909
▁handholding	-11.891
▁greece	-11.8911
ub	-11.8911
▁enriched	-11.8915
▁importing	-11.8918
▁dp	-11.8919
▁manas	-11.8924
admit	-11.8924
▁rana	-11.8927
▁surpassed	-11.8928
▁chi	-11.8933
▁ccs	-11.8937
▁howrah	-11.894
delhi	-11.8941
agency	-11.8941
-25	-11.8941
▁default	-11.895
▁ken	-11.8952
▁1130	-11.8956
▁hoist	-11.8958
tis	-11.8963
pg	-11.8963
lang	-11.8963
yoga	-11.8967
▁jo	-11.8967
.39	-11.8976
▁vocal	-11.8985
▁backlog	-11.8986
▁fold	-11.8991
▁artifacts	-11.8993
▁digilocker	-11.8993
▁ethiopia	-11.8993
▁malayalam	-11.8993
▁ujala	-11.8993
.12.2016	-11.8993
▁afternoon	-11.8993
▁tarini	-11.8993
▁traction	-11.8993
▁geopolitical	-11.8993
▁fitted	-11.8993
▁macroeconomic	-11.8993
▁icao	-11.8994
purna	-11.8998
▁indicator	-11.9
,800	-11.9003
▁drew	-11.9004
▁facts	-11.9005
kind	-11.9006
▁refined	-11.9009
▁garib	-11.901
▁communicable	-11.901
▁daughter	-11.9015
jal	-11.9017
▁clarifying	-11.9017
▁facets	-11.9018
star	-11.9019
person	-11.902
ground	-11.902
▁silos	-11.9023
▁particulars	-11.9024
▁ball	-11.9026
group	-11.9032
▁characteriz	-11.9034
visual	-11.9036
path	-11.9036
health	-11.9039
top	-11.904
▁tendering	-11.9043
▁recruits	-11.9044
▁agree	-11.9045
▁teach	-11.9053
uc	-11.9064
-28	-11.9068
▁volumes	-11.9068
▁harm	-11.9071
▁spouse	-11.9082
▁editors	-11.9082
▁instructor	-11.9082
uz	-11.9083
terdisciplinary	-11.9083
▁bullet	-11.9085
▁sentiments	-11.9087
▁safdarjung	-11.9087
▁chromite	-11.9087
▁enthusiasts	-11.9087
▁gorkha	-11.9087
▁procedural	-11.9087
▁vacancy	-11.9087
▁pramod	-11.9087
▁updation	-11.9087
▁telescope	-11.9087
▁tactics	-11.9087
▁cancelled	-11.9087
▁pradeep	-11.9087
▁bocw	-11.9087
▁madan	-11.9088
▁broken	-11.9089
▁fulfillment	-11.9089
▁beaches	-11.909
▁passes	-11.9091
▁consequently	-11.9092
▁narayanan	-11.9092
▁mdl	-11.9094
▁myas	-11.9101
▁rites	-11.9109
▁ifs	-11.911
▁limbs	-11.9116
▁qualifying	-11.9118
▁sim	-11.912
ber	-11.9122
▁enjoyed	-11.9122
▁assemblies	-11.9123
▁nodes	-11.9126
▁gstr	-11.9128
▁wheels	-11.9129
lc	-11.9129
▁shot	-11.913
swachhata	-11.9132
whole	-11.9132
▁elaborat	-11.9138
▁breed	-11.9139
arness	-11.9141
.31	-11.9143
▁2008.	-11.9149
▁1998	-11.9151
▁hear	-11.9157
▁disclosures	-11.9164
kul	-11.9169
ju	-11.9177
▁fingerprint	-11.9177
▁warehouse	-11.9178
▁accomplishment	-11.9179
▁saha	-11.9182
ach	-11.9182
▁avalanche	-11.9182
▁bunker	-11.9182
▁compress	-11.9182
▁gangtok	-11.9182
▁gratuity	-11.9182
▁liberation	-11.9182
▁neither	-11.9182
▁reciprocal	-11.9182
▁sophisticated	-11.9182
▁kapil	-11.9182
▁ksdpkkm	-11.9182
▁traceability	-11.9182
▁tragedy	-11.9182
▁differentiat	-11.9183
▁girish	-11.9183
▁saraswati	-11.9184
▁photography	-11.9185
▁makar	-11.9186
▁rated	-11.9186
▁permissible	-11.9187
coming	-11.9188
▁portability	-11.9188
▁2033	-11.9191
▁116	-11.9194
▁tuticorin	-11.9197
▁anyone	-11.9201
▁nirbhar	-11.9203
▁navigat	-11.9203
▁distributors	-11.9204
ite	-11.9205
-26	-11.9206
▁sharp	-11.9206
▁bust	-11.921
▁2009.	-11.9215
▁ages	-11.9217
▁enriching	-11.9217
▁scan	-11.922
▁wa	-11.9223
▁divisional	-11.9223
▁revitalize	-11.9225
▁enrich	-11.9226
tal	-11.9228
▁pin	-11.9233
ide	-11.9235
▁flowers	-11.9238
▁analyze	-11.9238
2.50	-11.9238
pet	-11.9242
▁finals	-11.9243
bjp	-11.9243
eo	-11.9243
▁ward	-11.9247
▁ncm	-11.925
aries	-11.9259
▁surrender	-11.9262
▁ssp	-11.9266
▁reservations	-11.927
▁jj	-11.9272
▁youths	-11.9273
eng	-11.9276
▁offerings	-11.9278
▁umnp	-11.9278
▁harsimrat	-11.9278
▁brunei	-11.9278
▁empathy	-11.9278
▁antiquities	-11.9278
▁psychological	-11.9279
▁sandeep	-11.9279
▁originating	-11.9279
▁ksdpkbkrs	-11.9279
▁native	-11.9279
▁shore	-11.928
▁deliveries	-11.928
▁habitats	-11.9282
▁assamese	-11.9282
▁chatterjee	-11.9283
▁iranian	-11.9285
▁esm	-11.9286
▁polluting	-11.9289
▁ppc	-11.9291
▁eoi	-11.9293
▁karnal	-11.9293
▁tam	-11.9297
▁spring	-11.9302
▁ahmad	-11.9308
▁discharged	-11.9309
▁cdri	-11.9314
chand	-11.9318
▁technicians	-11.932
.86	-11.9321
▁bas	-11.9323
12,	-11.9323
▁publish	-11.9324
▁ifc	-11.9325
sensitive	-11.9327
days	-11.9328
▁1700	-11.9329
▁sheets	-11.933
mani	-11.933
transformational	-11.9335
firing	-11.9337
▁kalra	-11.9337
▁7,000	-11.934
▁samaj	-11.9343
▁formations	-11.9345
▁qcos	-11.9347
▁gian	-11.9358
▁chat	-11.936
der	-11.9366
▁nu	-11.9368
▁stipend	-11.9372
▁signature	-11.9373
▁atrocities	-11.9375
▁brahmos	-11.9375
▁cctns	-11.9375
▁charitable	-11.9375
▁colonel	-11.9375
▁constituencies	-11.9375
▁kathua	-11.9375
▁married	-11.9375
▁paramount	-11.9375
▁pmfme	-11.9375
▁rahul	-11.9375
▁sludge	-11.9375
▁steadily	-11.9375
▁berlin	-11.9375
▁memories	-11.9375
▁salaries	-11.9375
▁boxes	-11.9377
▁partition	-11.9378
▁calm	-11.9378
▁profitable	-11.9381
▁batches	-11.9382
▁intermediate	-11.9383
ban	-11.9386
▁swiss	-11.9388
▁differences	-11.9389
▁2050	-11.939
.79	-11.9391
fe	-11.9393
▁recurring	-11.9407
▁shi	-11.9408
▁oceans	-11.9408
▁approv	-11.941
▁privileged	-11.9411
mit	-11.9417
▁proceed	-11.942
ila	-11.9422
russia	-11.9422
was	-11.9424
amrit	-11.9424
2013	-11.9427
bur	-11.9429
▁sab	-11.9429
▁realized	-11.9433
▁payers	-11.9433
▁1,500	-11.9443
wr	-11.9448
other	-11.9451
▁doors	-11.9454
▁adjustments	-11.9456
▁icf	-11.9458
law	-11.9461
▁punya	-11.9463
ema	-11.9466
▁posthumous	-11.947
▁fastag	-11.9473
▁vigil	-11.9473
▁bhagidari	-11.9473
▁deficiency	-11.9473
▁maulana	-11.9473
▁rallies	-11.9473
▁scalable	-11.9473
▁untapped	-11.9473
▁volatility	-11.9473
▁cbrn	-11.9473
▁rwanda	-11.9473
▁shobha	-11.9473
▁wives	-11.9474
▁gaming	-11.9474
▁vinay	-11.9474
▁transplantation	-11.9474
▁uniformity	-11.9475
▁acceptable	-11.9477
▁macron	-11.9477
▁1955	-11.9477
▁instructors	-11.9478
▁accidental	-11.9479
▁fadnavis	-11.948
▁tally	-11.948
▁affirmed	-11.9481
▁biden	-11.9482
ola	-11.9483
▁cheer	-11.9485
▁accepting	-11.9486
che	-11.9494
▁revamping	-11.9497
▁122	-11.95
▁agent	-11.9501
▁refugees	-11.9504
ker	-11.9505
▁dwelling	-11.9506
▁leasing	-11.9508
anchar	-11.9515
grade	-11.9516
▁mplads	-11.952
nb	-11.9522
put	-11.9524
▁revis	-11.9529
july	-11.953
oor	-11.9531
▁binding	-11.9534
▁experiment	-11.9535
preet	-11.9535
▁metres	-11.954
▁label	-11.954
▁designers	-11.9542
▁mera	-11.9551
▁ashram	-11.9563
una	-11.9569
▁dimension	-11.957
▁negotiat	-11.9572
uddin	-11.9572
▁architectural	-11.9572
▁banerjee	-11.9572
▁circulation	-11.9572
▁grateful	-11.9572
▁memorable	-11.9572
▁moratorium	-11.9572
▁sorrow	-11.9572
▁unifying	-11.9572
▁competence	-11.9573
▁spill	-11.9573
▁sometimes	-11.9573
▁ecology	-11.9573
▁containment	-11.9574
▁euro	-11.9574
▁sentiment	-11.9574
▁ti	-11.9575
ement	-11.9578
▁donated	-11.9582
▁2-3	-11.9582
▁stored	-11.9584
▁travelers	-11.9585
▁disseminated	-11.9586
▁correction	-11.9588
▁pharmacy	-11.9591
gky	-11.9593
▁diplomats	-11.9593
▁performers	-11.9597
▁ukraine	-11.9597
▁timeless	-11.9599
eg	-11.9601
▁authors	-11.9603
rg	-11.9604
▁151	-11.9604
▁consuming	-11.9607
▁mah	-11.9616
digit	-11.9617
▁liberal	-11.9622
▁describe	-11.9622
▁halt	-11.9622
▁pledges	-11.9622
payment	-11.9625
piracy	-11.9627
pakistan	-11.9627
▁rough	-11.9627
sat	-11.9631
▁121	-11.9631
▁nationalism	-11.9632
▁manned	-11.9632
bb	-11.9633
bhu	-11.9637
▁feeling	-11.9637
▁mounted	-11.9638
▁nbfcs	-11.9639
▁permissions	-11.9642
▁screenings	-11.9642
ct	-11.9643
.64	-11.9643
▁adapting	-11.9643
▁gems	-11.9646
zi	-11.9647
▁handles	-11.9648
▁editions	-11.9649
▁aif	-11.9651
ect	-11.9652
▁sari	-11.9661
iip	-11.9662
▁sanjiv	-11.9663
▁christ	-11.9666
▁couple	-11.9667
▁supplementing	-11.9667
▁abolition	-11.9672
▁anusandhan	-11.9672
▁conceived	-11.9672
▁diligence	-11.9672
▁exchequer	-11.9672
▁identifies	-11.9672
▁weaving	-11.9672
▁persistent	-11.9673
▁rameswar	-11.9673
▁vigilant	-11.9673
▁attachment	-11.9673
▁craftsmen	-11.9673
▁patnaik	-11.9673
▁glimpse	-11.9673
▁unemployed	-11.9674
▁hlc	-11.9674
▁overhaul	-11.9674
▁affection	-11.9674
▁128	-11.9675
▁ghg	-11.9675
▁complexity	-11.9677
▁1958	-11.9678
▁inspirational	-11.9684
▁hurdles	-11.9686
sbp	-11.9688
▁actually	-11.9689
▁proportion	-11.9696
▁comparable	-11.9697
iest	-11.9698
dan	-11.9704
▁119	-11.9707
▁nomadic	-11.971
▁iitm	-11.9714
field	-11.9715
laws	-11.972
▁peru	-11.9723
▁exhibit	-11.9723
▁chowdary	-11.9724
purpose	-11.9728
military	-11.9729
▁cleanup	-11.9731
narayan	-11.9732
▁borrowings	-11.9733
nepal	-11.9735
7.5	-11.9738
▁nag	-11.974
▁instruction	-11.9748
ron	-11.9753
▁indra	-11.9756
▁75,000	-11.9757
▁kick	-11.9758
▁grounds	-11.9758
tl	-11.9762
▁resolutions	-11.9766
▁ratan	-11.9766
▁pages	-11.9769
eb	-11.9771
▁learned	-11.9772
▁disparities	-11.9773
▁souvenir	-11.9773
▁tributaries	-11.9773
▁tuesday	-11.9773
▁conjunction	-11.9774
▁ghosh	-11.9774
▁ravindra	-11.9774
▁malawi	-11.9774
▁iyer	-11.9774
▁mathur	-11.9774
▁municipalities	-11.9774
▁momentous	-11.9774
▁1400	-11.9775
▁liquidation	-11.9775
▁coalition	-11.9776
▁ncmc	-11.9776
▁dilli	-11.9777
▁customized	-11.9778
sri	-11.9778
▁calculated	-11.9781
rcnb	-11.9781
▁janjatiya	-11.9782
▁muslims	-11.9784
▁execute	-11.9787
▁ingredients	-11.9792
gh	-11.9793
biomanufacturing	-11.9794
dhi	-11.9795
▁elaborate	-11.9796
▁quoted	-11.98
▁word	-11.9806
▁wire	-11.9808
▁pictures	-11.9811
▁nr	-11.9811
ten	-11.9813
ane	-11.9814
▁2032	-11.9816
ence	-11.9817
-130	-11.982
▁mg	-11.9821
▁lifting	-11.9825
▁mci	-11.9827
nulm	-11.9831
▁gstn	-11.9831
specialty	-11.9832
risk	-11.9835
▁commit	-11.9838
▁dh	-11.984
▁undertakes	-11.9843
mw	-11.9846
▁assignments	-11.9848
▁trainer	-11.9851
value	-11.9853
▁fail	-11.9862
▁akash	-11.9867
▁donations	-11.9869
▁pooling	-11.9869
▁abhay	-11.987
▁ima	-11.9872
▁cultivate	-11.9874
▁glimpses	-11.9874
▁tragic	-11.9875
▁temper	-11.9875
▁hussain	-11.9876
▁kotecha	-11.9876
▁pertinent	-11.9876
▁syllabus	-11.9876
▁desalination	-11.9876
▁akhil	-11.9876
▁fifa	-11.9876
▁barrage	-11.9876
▁marginalised	-11.9876
▁simulated	-11.9877
▁ncap	-11.9877
▁corners	-11.9877
▁tableaux	-11.9877
▁malabar	-11.9878
▁supplier	-11.9879
▁narcotic	-11.9879
▁rcf	-11.988
▁indus	-11.9881
▁accused	-11.9881
▁accomplished	-11.9888
▁investigated	-11.9888
like	-11.9889
▁multipurpose	-11.989
▁iora	-11.9891
▁versions	-11.9892
▁abandoned	-11.9892
▁ccis	-11.9892
ashwani	-11.9894
▁hygienic	-11.9895
▁schedules	-11.9899
ib	-11.99
▁furnishing	-11.9901
▁authored	-11.9901
▁insv	-11.9908
pati	-11.9909
▁rrbs	-11.9909
kara	-11.9911
ny	-11.9915
offici	-11.9921
▁taxable	-11.9928
▁leases	-11.9929
▁190	-11.9935
▁pant	-11.9936
irrigation	-11.9936
azadi	-11.9936
-01	-11.9937
▁entirely	-11.9942
▁lee	-11.9946
oil	-11.9948
2047	-11.995
▁heis	-11.9952
▁documented	-11.9952
▁paralympics	-11.9953
▁pen	-11.9953
sym	-11.9955
▁exploit	-11.9962
▁centralstate	-11.9963
lic	-11.9965
▁217	-11.9972
▁kinds	-11.9972
▁log	-11.9976
wg	-11.9976
▁rajdhani	-11.9978
▁blind	-11.9978
▁kavach	-11.9979
▁observance	-11.9979
▁unchanged	-11.9979
▁zambia	-11.9979
▁outdated	-11.9979
▁uranium	-11.9979
▁gautam	-11.9979
▁itanagar	-11.9979
▁breakdown	-11.9979
▁humble	-11.9979
▁countless	-11.9979
▁motherland	-11.9979
▁shale	-11.9979
▁weeded	-11.998
▁hcl	-11.9983
▁narrative	-11.9983
▁instance	-11.9983
▁modification	-11.9983
▁jawan	-11.9983
▁zimbabwe	-11.9984
▁offence	-11.9984
▁dlc	-11.9985
▁ninth	-11.9985
▁revolutionize	-11.9987
▁criticized	-11.9988
▁recruited	-11.9988
ose	-11.9989
▁sood	-11.9989
▁nasa	-11.999
▁firmly	-11.999
15,000	-11.9991
▁powerhouse	-11.9991
▁brands	-11.9994
▁fr	-11.9994
▁cautioned	-11.9995
▁sanskriti	-11.9995
een	-11.9999
▁ludhiana	-11.9999
▁flown	-12.0007
▁sqm	-12.0016
▁capt	-12.0031
▁ng	-12.0033
.91	-12.0036
▁gom	-12.0037
department	-12.0042
▁1982	-12.0044
npl	-12.0045
▁serbia	-12.0046
project	-12.0048
▁cho	-12.0048
▁classrooms	-12.0054
▁arise	-12.0063
irsa	-12.0065
▁relax	-12.0066
▁cook	-12.0067
ew	-12.0071
▁magistrates	-12.0075
▁recognise	-12.0076
▁kgs	-12.0077
▁furnace	-12.0083
▁sampling	-12.0083
▁striving	-12.0083
▁supriyo	-12.0083
▁conserving	-12.0083
▁david	-12.0083
▁satpura	-12.0083
▁charkha	-12.0083
▁bapu	-12.0083
▁panelists	-12.0083
▁pfms	-12.0083
▁finger	-12.0083
▁potable	-12.0084
▁brazilian	-12.0085
▁contacted	-12.0087
▁encroachment	-12.0088
▁editor	-12.0088
▁devastat	-12.0088
▁cylinder	-12.0088
▁vk	-12.0089
▁midh	-12.0089
▁pathankot	-12.009
▁gsr	-12.009
▁dpe	-12.0093
clean	-12.0093
▁mentors	-12.0093
▁csl	-12.0093
pak	-12.0096
▁economical	-12.0096
▁abilities	-12.0098
▁bhupendra	-12.0098
▁exhibited	-12.01
tp	-12.0102
yam	-12.0103
900	-12.0104
▁cyclones	-12.0107
▁navi	-12.0107
▁sindhu	-12.0108
▁concessionaires	-12.0118
▁decent	-12.0125
ranging	-12.0125
▁repairs	-12.0137
anga	-12.0145
compliant	-12.0148
crore	-12.0148
▁aman	-12.0152
▁entitlements	-12.0154
▁gaon	-12.0157
▁coated	-12.0158
▁notify	-12.0158
▁enforc	-12.0161
will	-12.0161
▁ham	-12.0167
▁projections	-12.0167
▁lanes	-12.0169
▁automobiles	-12.0174
sign	-12.0176
iz	-12.018
▁yields	-12.0181
▁wholesale	-12.0188
▁cocaine	-12.0188
▁manekshaw	-12.0188
▁nbnkp	-12.0188
▁imaging	-12.0188
▁powder	-12.0188
▁intense	-12.0188
▁gene	-12.0188
▁dwellers	-12.0188
▁archery	-12.0189
▁pahal	-12.0189
▁tall	-12.0189
▁complexities	-12.019
▁concurrently	-12.0193
▁scientifically	-12.0194
▁trivandrum	-12.0195
.10.2024	-12.0196
▁inclusiveness	-12.0197
▁assesses	-12.0197
▁rupay	-12.02
▁row	-12.0201
▁loved	-12.0207
▁jit	-12.0208
▁indirectly	-12.0209
rich	-12.0211
.85	-12.0217
form	-12.0219
▁caf	-12.0219
-13	-12.022
favorable	-12.0222
giri	-12.0222
▁1979	-12.0224
▁udyam	-12.0224
▁caution	-12.0225
▁mobiliz	-12.0226
▁atma	-12.0229
bm	-12.0234
▁lean	-12.0238
▁licensed	-12.0241
▁yielding	-12.0243
bus	-12.0245
▁contributors	-12.0248
▁1976	-12.025
▁nada	-12.0252
▁augmented	-12.0255
seller	-12.0255
▁7000	-12.026
▁2006.	-12.027
bra	-12.027
ky	-12.0271
▁economists	-12.0276
▁combine	-12.0288
▁romania	-12.0289
▁unfortunate	-12.0291
▁shoulders	-12.0291
▁participates	-12.0292
▁accrue	-12.0293
▁alcohol	-12.0294
▁stainless	-12.0294
▁accessories	-12.0294
▁bulgaria	-12.0294
▁garner	-12.0294
▁hypertension	-12.0294
▁meenakshi	-12.0294
▁punctuality	-12.0294
▁reconnaissance	-12.0294
▁compact	-12.0295
▁urgency	-12.0295
▁unconventional	-12.0296
▁transporting	-12.0297
▁benefitting	-12.0299
▁ambulance	-12.0301
▁spacecraft	-12.0301
▁instalment	-12.0302
▁magistrate	-12.0302
▁reservoir	-12.0302
▁halls	-12.0302
▁lacs	-12.0302
▁travelled	-12.0304
▁electron	-12.0304
▁pil	-12.0305
▁2029	-12.0306
▁pooja	-12.0309
▁scored	-12.0309
▁ncst	-12.0311
▁forging	-12.0313
▁attractions	-12.0315
nm	-12.0318
▁sincere	-12.0318
▁revise	-12.032
▁mro	-12.0321
ay	-12.0323
schemes	-12.0323
ile	-12.0329
▁bases	-12.0331
▁kim	-12.0332
▁gifts	-12.0339
▁auctioned	-12.0344
lan	-12.0344
.32	-12.0353
▁handing	-12.0362
education	-12.0362
▁vc	-12.0364
chennai	-12.0364
february	-12.0364
country	-12.0364
▁signaling	-12.0373
met	-12.0375
rah	-12.0375
▁qualify	-12.0377
▁critically	-12.0378
▁panch	-12.0378
▁mal	-12.0384
▁listen	-12.0386
▁alumnus	-12.0402
▁kakinada	-12.0402
▁karandlaje	-12.0402
▁martyrdom	-12.0402
▁christmas	-12.0402
▁diving	-12.0402
▁cgwb	-12.0402
▁pkvy	-12.0402
▁zaidi	-12.0402
▁arctic	-12.0402
▁modular	-12.0402
▁ccrum	-12.0402
▁purity	-12.0403
▁ligo	-12.0403
▁survival	-12.0403
▁sccl	-12.0404
▁5-	-12.0404
25,000	-12.0405
▁growers	-12.0405
▁mopr	-12.0406
▁relay	-12.0408
tm	-12.0408
▁adalat	-12.0411
▁sti	-12.0411
min	-12.0412
▁bulletin	-12.0413
▁rifle	-12.0414
kanta	-12.0415
▁sight	-12.0416
▁uganda	-12.0417
▁kathak	-12.0418
▁shramdaan	-12.0419
▁sap	-12.042
▁governmentsut	-12.0421
▁longest	-12.0421
▁stack	-12.0424
▁catch	-12.043
▁tenth	-12.043
▁jag	-12.0433
pre	-12.0434
▁revived	-12.0435
▁katra	-12.0442
▁nk	-12.0443
▁aditya	-12.0443
▁gh	-12.0444
▁sbs	-12.0448
▁hills	-12.045
▁purchased	-12.0452
▁belt	-12.0454
-9	-12.0457
▁yb	-12.0458
▁babul	-12.0466
▁accord	-12.0468
▁lowering	-12.0473
retirement	-12.0474
-2025	-12.0474
engineering	-12.0475
▁ranges	-12.0482
▁selecting	-12.0483
mon	-12.0487
well	-12.0489
▁defeat	-12.0494
▁attach	-12.0503
▁standardize	-12.0506
▁scales	-12.0509
▁310	-12.0509
,400	-12.0509
▁camaraderie	-12.0511
▁colombia	-12.0511
▁experiencing	-12.0511
▁lohia	-12.0511
▁rafale	-12.0511
▁sindri	-12.0511
▁wholly	-12.0511
▁digitizing	-12.0511
▁niranjan	-12.0511
▁signify	-12.0511
▁inequality	-12.0511
▁authorisation	-12.0511
▁rusa	-12.0512
vit	-12.0515
▁establishe	-12.0515
▁jp	-12.0515
▁newborn	-12.0515
gal	-12.0515
▁martyred	-12.0516
▁maah	-12.0516
istic	-12.0517
▁longstanding	-12.052
▁mangrove	-12.052
had	-12.0521
▁participant	-12.0521
▁doubles	-12.0523
▁signage	-12.0523
▁mhi	-12.0526
circumnavigation	-12.0526
▁upskilling	-12.0527
▁medalist	-12.0528
▁breach	-12.0528
▁nc	-12.053
▁seizures	-12.0532
wing	-12.0534
3000	-12.0538
▁diamonds	-12.054
▁inflows	-12.0543
▁cg	-12.0544
.83	-12.0548
▁npa	-12.0551
▁administering	-12.0552
▁mentoring	-12.0553
▁transferr	-12.0556
▁adg	-12.0563
ions	-12.0579
▁imp	-12.0581
▁mani	-12.0582
20221	-12.0583
▁posters	-12.0584
catering	-12.0585
jai	-12.0586
effectiveness	-12.0587
▁volunteer	-12.0595
▁1.0	-12.0595
▁charan	-12.0598
▁psa	-12.06
▁kumari	-12.0603
▁audiences	-12.0606
▁deck	-12.0608
▁sangh	-12.0608
▁neighbours	-12.061
▁estates	-12.0613
▁epr	-12.0615
▁4.0.	-12.0616
▁revisions	-12.0616
▁usual	-12.0617
▁aurangabad	-12.0621
▁composed	-12.0621
▁ezhimala	-12.0621
▁latter	-12.0621
▁phosphate	-12.0621
▁porbandar	-12.0621
▁reconciliation	-12.0621
▁tunisia	-12.0621
▁courtesy	-12.0621
▁rishikesh	-12.0621
▁amarnath	-12.0621
▁bhanu	-12.0621
▁rationalizing	-12.0621
▁standalone	-12.0621
▁cornerstone	-12.0621
madhyamik	-12.0621
▁treaties	-12.0621
▁baghel	-12.0621
▁jamnagar	-12.0621
▁tough	-12.0621
▁otp	-12.0621
▁kitchen	-12.0622
gas	-12.0622
▁aerb	-12.0622
▁repay	-12.0622
▁unanimously	-12.0622
▁tarun	-12.0623
ees	-12.0624
▁mstc	-12.0625
nation	-12.0625
fr	-12.0628
▁doorstep	-12.0631
▁donor	-12.0633
▁giri	-12.0635
▁analyz	-12.0638
▁pp	-12.0639
▁circulars	-12.0642
▁believed	-12.0642
▁dean	-12.0644
▁laos	-12.0646
▁complemented	-12.0647
▁smile	-12.0648
▁1978	-12.0654
systems	-12.0656
▁offenses	-12.0658
▁141	-12.066
▁plot	-12.0661
▁ashas	-12.0661
▁eleventh	-12.0661
▁piloted	-12.0664
▁internships	-12.0672
graduate	-12.0674
▁hike	-12.0676
▁adults	-12.0676
▁bai	-12.0678
▁alloy	-12.068
▁depart	-12.068
▁variations	-12.068
▁spr	-12.0681
lf	-12.0682
5.00	-12.0684
▁generators	-12.0687
▁kha	-12.069
winning	-12.0696
▁awcs	-12.0698
performance	-12.0698
▁readers	-12.0699
ear	-12.0705
▁thiru	-12.0707
▁bestow	-12.0714
▁nsd	-12.0714
▁landed	-12.0715
▁donors	-12.0721
elect	-12.0723
▁marketplace	-12.0726
▁macro	-12.0729
sinchayee	-12.0732
▁itinerary	-12.0732
▁oecd	-12.0732
▁ornamental	-12.0732
▁remuneration	-12.0732
▁sriharikota	-12.0732
▁thomas	-12.0732
▁banaras	-12.0732
▁heptulla	-12.0732
▁casualty	-12.0732
▁sadananda	-12.0732
▁flagging	-12.0732
▁bbnkss	-12.0732
▁zika	-12.0732
▁umang	-12.0732
▁phenomenal	-12.0733
▁arya	-12.0733
▁untied	-12.0734
linking	-12.0734
▁nso	-12.074
▁137	-12.0742
▁swiftly	-12.0743
▁breakthrough	-12.0744
▁exposed	-12.0744
▁collector	-12.0745
▁pariksha	-12.0745
▁empanelment	-12.0746
▁religions	-12.075
▁manure	-12.0753
▁seamlessly	-12.0754
▁wetland	-12.0757
▁5.5	-12.0759
▁shield	-12.0759
og	-12.0759
▁saheb	-12.076
▁pri	-12.0762
▁adequately	-12.0766
▁learners	-12.0766
▁didi	-12.0774
▁borrowers	-12.0775
▁cec	-12.0776
▁reconstitut	-12.0777
▁breast	-12.0781
▁1991	-12.0783
mala	-12.0784
▁translat	-12.079
▁ju	-12.0808
▁fell	-12.0808
france	-12.0811
proof	-12.0812
▁positioned	-12.0816
▁swa	-12.0817
▁luna	-12.0818
-40	-12.082
▁sid	-12.0821
▁tak	-12.0822
dia	-12.083
▁walking	-12.0831
▁provisioning	-12.0832
▁emulate	-12.0837
▁arjuna	-12.0839
▁maldiv	-12.0843
▁animation	-12.0844
▁dialysis	-12.0844
▁eminence	-12.0844
▁hinterland	-12.0844
▁legitimate	-12.0844
▁mannkibaat	-12.0844
▁miscellaneous	-12.0844
▁motivating	-12.0844
▁nityanand	-12.0844
▁prominence	-12.0844
▁vicinity	-12.0844
▁ahuja	-12.0844
▁sindhudurg	-12.0844
▁chip	-12.0844
▁variable	-12.0844
▁taught	-12.0844
▁replication	-12.0845
▁rajan	-12.0845
▁tractor	-12.0845
▁everything	-12.0846
▁ngt	-12.0847
▁esg	-12.0848
▁cadres	-12.0848
▁validate	-12.0848
▁ddu	-12.0848
▁introduces	-12.0851
▁differential	-12.0852
▁fcil	-12.0854
▁hospitalization	-12.0854
▁travellers	-12.0855
▁pdr	-12.0856
▁iimc	-12.0858
▁insight	-12.0858
▁bold	-12.086
cu	-12.0863
▁stabilize	-12.0868
▁broadly	-12.0869
▁glaciers	-12.0869
▁directing	-12.0869
▁polymer	-12.0869
▁mobilized	-12.0871
▁bn	-12.0873
▁informing	-12.0874
.63	-12.0875
▁1984	-12.0875
wanted	-12.0875
▁symbolizes	-12.0877
▁coasts	-12.0884
▁gases	-12.0892
▁historically	-12.0894
▁unlocking	-12.0895
▁nch	-12.0897
▁mag	-12.0904
▁seeing	-12.0904
▁cuba	-12.0907
▁rpl	-12.0908
▁2026.	-12.091
▁explosives	-12.0918
resident	-12.0922
century	-12.0926
international	-12.0927
▁databases	-12.0931
packaged	-12.0935
ff	-12.0935
▁res	-12.0938
kashi	-12.094
taking	-12.0941
hat	-12.0942
linda	-12.0944
▁tm	-12.0946
tf	-12.0947
link	-12.0949
▁cl	-12.0952
▁liberty	-12.0958
▁malhotra	-12.0958
▁obama	-12.0958
▁sudarshan	-12.0958
▁talcher	-12.0958
▁aktshsk	-12.0958
▁feedstock	-12.0958
▁fidf	-12.0958
▁suitably	-12.0958
▁predominant	-12.0958
▁misinformation	-12.0958
▁yarn	-12.0958
▁geology	-12.0958
▁phosphorite	-12.0958
▁cellular	-12.0958
▁birac	-12.0958
▁stature	-12.0958
▁apmc	-12.0958
▁padur	-12.0958
▁capex	-12.0959
▁unnat	-12.0959
▁fishery	-12.0959
▁exact	-12.096
▁sci	-12.096
▁shifts	-12.0962
▁haats	-12.0963
▁psf	-12.0963
▁pfc	-12.0964
▁recycled	-12.0966
▁befitting	-12.0967
▁suo	-12.0967
▁iiit	-12.0967
▁escalation	-12.0967
▁tsp	-12.097
▁artisan	-12.097
▁educators	-12.0971
▁objection	-12.0972
▁vatsalya	-12.0972
▁turbine	-12.0972
▁leakage	-12.0973
▁spice	-12.0974
stitutionalizing	-12.0975
▁datasets	-12.0981
▁intervals	-12.0982
800	-12.0983
▁dig	-12.0993
tb	-12.0995
▁sons	-12.0995
▁influenced	-12.0999
▁menu	-12.1009
cil	-12.101
kur	-12.1012
▁kota	-12.1016
▁prisons	-12.102
▁ponds	-12.1022
▁onset	-12.103
▁lc	-12.103
buy	-12.1034
adi	-12.1035
▁ia	-12.1039
▁arup	-12.1039
▁hefa	-12.1039
stakeholder	-12.1042
academia	-12.1043
▁127	-12.1048
▁2.3	-12.1051
▁1300	-12.1057
▁nf	-12.1058
.55	-12.1061
▁rush	-12.1064
▁illustr	-12.1068
▁aircrafts	-12.1068
▁kumarjktourism	-12.1073
▁acceleration	-12.1073
▁bazaar	-12.1073
▁promulgated	-12.1073
▁transcend	-12.1073
▁ujjain	-12.1073
▁shortcomings	-12.1073
▁cwsn	-12.1073
▁ireland	-12.1073
▁considerably	-12.1073
▁rejection	-12.1074
▁odia	-12.1074
▁attaches	-12.1074
▁dress	-12.1075
▁carefully	-12.1075
▁rdso	-12.1075
0.00	-12.1077
▁modify	-12.1078
▁sas	-12.108
▁sharad	-12.108
▁privilege	-12.1082
▁color	-12.1082
▁taxi	-12.1084
▁extract	-12.1089
▁legislature	-12.1089
▁interior	-12.1089
▁activation	-12.1091
▁modelling	-12.1092
▁7.6	-12.1096
▁nmc	-12.1097
▁assign	-12.1098
▁sur	-12.1098
▁occupation	-12.1099
▁treatments	-12.11
▁dominated	-12.1102
▁shed	-12.1105
-1,	-12.1107
▁propel	-12.1107
▁cara	-12.1107
▁hong	-12.1121
pf	-12.1126
▁duplication	-12.1127
▁224	-12.113
▁mala	-12.1131
▁escape	-12.114
▁ras	-12.1147
▁excluded	-12.1158
7.50	-12.1158
▁650	-12.1158
▁2009,	-12.1159
diesel	-12.1159
saheb	-12.1159
accessible	-12.116
▁10.00	-12.116
innovation	-12.1161
▁136	-12.1161
dimensional	-12.1168
▁nif	-12.1176
official	-12.1177
▁refer	-12.1181
▁climatic	-12.1181
▁nalsa	-12.1187
▁contamination	-12.1189
▁diksha	-12.1189
▁kohima	-12.1189
▁studied	-12.1189
▁virasat	-12.1189
▁walkathon	-12.1189
▁capped	-12.1189
▁liais	-12.1189
▁napcc	-12.1189
▁dahd	-12.1189
▁judo	-12.1189
▁vles	-12.1189
▁naxalism	-12.1189
▁legendary	-12.1189
▁supervisory	-12.1189
▁fcra	-12.119
▁npms	-12.119
▁nmba	-12.119
▁festive	-12.119
▁qci	-12.119
▁meri	-12.119
▁developer	-12.119
▁dating	-12.1193
pj	-12.1194
bijli	-12.1195
▁brighter	-12.1195
▁frequently	-12.1196
▁affiliation	-12.1197
▁pregnancy	-12.1198
qtl	-12.1199
▁ncte	-12.12
▁camera	-12.1201
hari	-12.1201
▁dealt	-12.1202
▁scores	-12.1205
▁vrindavan	-12.1205
den	-12.1206
▁calculation	-12.1206
▁simulator	-12.1206
▁architect	-12.1206
▁evil	-12.1207
▁surendra	-12.1209
vian	-12.121
▁scouts	-12.1212
.01.2015	-12.1215
take	-12.1215
▁icon	-12.1216
▁hai	-12.1218
mou	-12.1221
▁infections	-12.1227
non	-12.1231
come	-12.1231
▁narmada	-12.1234
▁162	-12.1236
▁motion	-12.1236
▁pull	-12.1237
▁remotely	-12.1238
uv	-12.1243
nan	-12.1245
▁tex	-12.1251
ob	-12.1252
▁hasina	-12.1254
▁inculcat	-12.1259
▁metering	-12.1263
▁leaves	-12.1266
tak	-12.127
▁episodes	-12.1272
▁wait	-12.1272
▁yards	-12.1273
zo	-12.1278
fuel	-12.1279
tory	-12.1281
▁fe	-12.129
▁appointing	-12.1292
ula	-12.1293
▁sort	-12.1301
.03.2023	-12.1305
▁husband	-12.1306
▁lump	-12.1306
▁aktbkrk	-12.1307
▁bhashini	-12.1307
▁cipet	-12.1307
▁divine	-12.1307
▁geriatric	-12.1307
▁iqbal	-12.1307
▁pmjvk	-12.1307
▁polavaram	-12.1307
▁respiratory	-12.1307
▁tvoa	-12.1307
▁embedd	-12.1307
▁purification	-12.1307
▁sericulture	-12.1307
▁padyatra	-12.1307
▁pearl	-12.1307
▁vibhushan	-12.1307
▁midnight	-12.1307
▁slag	-12.1307
▁ulip	-12.1307
▁pradhanmantri	-12.1307
▁tdb	-12.1308
▁chcs	-12.1308
▁mufti	-12.1309
▁fs	-12.131
▁geete	-12.131
devine	-12.1311
▁subsumed	-12.1311
▁mary	-12.1313
dg	-12.1315
▁va	-12.1317
▁apple	-12.1318
▁honest	-12.1319
▁mazag	-12.1321
▁nsso	-12.1321
▁sje	-12.1321
▁rsby	-12.1323
spot	-12.1325
▁bidder	-12.1326
banking	-12.1327
▁oxide	-12.133
▁detention	-12.1332
▁predicted	-12.1334
▁layers	-12.1334
inal	-12.1338
role	-12.1341
▁importantly	-12.1341
▁happening	-12.1341
▁downloaded	-12.1341
▁conform	-12.1342
12,000	-12.1343
▁refineries	-12.1344
▁ger	-12.1347
kant	-12.1351
▁stateuts	-12.1359
▁itdc	-12.1359
,600	-12.1359
▁ps	-12.136
▁gita	-12.1361
mitra	-12.1362
▁grids	-12.1363
▁seema	-12.1369
sports	-12.1372
▁niv	-12.1374
ua	-12.1379
▁lawns	-12.138
▁alive	-12.1384
ven	-12.1386
▁campa	-12.1399
vested	-12.14
australia	-12.14
industry	-12.14
▁surroundings	-12.14
ili	-12.1401
▁architects	-12.1408
▁realis	-12.1408
▁8000	-12.1411
▁adjust	-12.1411
▁pucc	-12.1412
▁shrine	-12.1413
▁210	-12.1413
developed	-12.1415
▁lag	-12.1418
▁aggressive	-12.1422
▁relentless	-12.1422
rit	-12.1425
▁petro	-12.1425
▁custody	-12.1426
▁hivaids	-12.1426
▁quantitative	-12.1426
▁sbdpar	-12.1426
▁surprise	-12.1426
▁incois	-12.1426
▁query	-12.1426
▁aksmkvak	-12.1426
ology	-12.1426
▁authenticity	-12.1426
▁cease	-12.1426
▁dafw	-12.1426
▁iea	-12.1429
▁rental	-12.1429
▁mon	-12.143
▁computerized	-12.1433
flung	-12.1434
▁kong	-12.1434
▁error	-12.1436
▁qu	-12.1436
▁meat	-12.1437
▁punishment	-12.1445
▁economist	-12.1446
▁manesar	-12.1446
▁lifted	-12.1454
▁sang	-12.1454
▁1960	-12.1456
▁auditors	-12.1458
▁pak	-12.1464
▁adjudicat	-12.1472
gmail	-12.1472
▁mac	-12.1478
▁transitions	-12.1478
▁lakshmi	-12.1478
▁cpsus	-12.1479
▁bottles	-12.1479
▁burn	-12.148
▁damages	-12.1486
▁tracker	-12.1489
▁100-	-12.1491
▁changer	-12.1495
chha	-12.1497
▁underline	-12.15
▁enabler	-12.15
▁demo	-12.1507
.48	-12.1508
▁parallels	-12.1513
▁nre	-12.1514
eat	-12.1514
ium	-12.1514
▁tried	-12.1514
▁happen	-12.1515
▁legally	-12.1517
▁iprs	-12.1517
zu	-12.1517
▁gan	-12.152
▁aoc	-12.152
vasudhaiva	-12.1522
suggestions	-12.1522
mobility	-12.1522
▁formats	-12.1527
remembering	-12.1536
tank	-12.1538
▁collapse	-12.154
▁exemplifie	-12.154
▁nsc	-12.1542
▁dense	-12.1543
▁artefacts	-12.1546
▁brigadier	-12.1546
▁commodore	-12.1546
▁comptroller	-12.1546
▁epidemic	-12.1546
▁guinness	-12.1546
▁imposing	-12.1546
▁kyrgyzstan	-12.1546
▁pedagogy	-12.1546
▁recognising	-12.1546
▁sirisena	-12.1546
▁displacement	-12.1546
▁isolation	-12.1546
najma	-12.1546
▁finland	-12.1546
▁proving	-12.1546
▁dilip	-12.1546
▁dimapur	-12.1546
▁dawra	-12.1546
▁ananthkumar	-12.1546
startup	-12.1547
▁2010-11	-12.1547
▁paramilitary	-12.1547
▁bigger	-12.1547
▁analytical	-12.1547
▁sarkar	-12.1547
▁favourable	-12.1548
naught	-12.1548
▁misra	-12.1548
▁stance	-12.1548
▁certainty	-12.1548
▁groundbreaking	-12.1549
▁khanna	-12.1549
diya	-12.1551
▁ramakrishna	-12.1551
▁refute	-12.1553
▁cure	-12.1559
▁absorb	-12.156
▁graduation	-12.1561
▁3-4	-12.1562
▁terminus	-12.1563
▁ffc	-12.1564
▁severely	-12.1565
▁rebate	-12.1567
▁ruling	-12.1568
▁newspaper	-12.1568
▁adjustment	-12.1568
▁dhi	-12.1579
▁creditors	-12.1579
pending	-12.1581
▁pd	-12.1583
▁bandhan	-12.1583
▁bhuj	-12.1585
▁aruna	-12.1586
rp	-12.1592
kk	-12.1594
▁fixing	-12.1597
pad	-12.1597
▁switching	-12.1599
▁2002.	-12.16
▁bc	-12.16
▁mam	-12.1601
var	-12.1602
.36	-12.1606
▁underwent	-12.1606
lat	-12.1615
▁3500	-12.1618
▁maharaja	-12.1618
.34	-12.1625
▁nbsk	-12.1627
▁3.2	-12.1628
lines	-12.1634
▁conventions	-12.165
▁litter	-12.1651
▁emphasise	-12.1657
▁conceptual	-12.1657
definitely	-12.1657
▁tag	-12.166
▁computers	-12.1662
▁perfect	-12.1664
protsahan	-12.1668
▁ancillary	-12.1668
▁ceremonies	-12.1668
▁chattisgarh	-12.1668
▁exclusion	-12.1668
▁honorarium	-12.1668
▁iiidem	-12.1668
▁jewelry	-12.1668
▁kozhikode	-12.1668
▁magnesite	-12.1668
▁prioritization	-12.1668
▁sadhvi	-12.1668
▁swedish	-12.1668
▁tithi	-12.1668
▁pradip	-12.1668
▁slowdown	-12.1668
▁mapped	-12.1668
▁vikramaditya	-12.1668
▁ballot	-12.1668
▁teri	-12.1668
▁jetty	-12.1669
chael	-12.1669
▁axis	-12.1669
pite	-12.1669
▁ledger	-12.167
.10.2016	-12.1672
hol	-12.1672
rail	-12.1673
msme	-12.1674
▁interns	-12.1676
▁powergrid	-12.1678
▁nukkad	-12.168
▁eager	-12.1681
▁rac	-12.1682
char	-12.1686
▁habit	-12.1688
▁diets	-12.1689
▁cbc	-12.1691
▁rajkot	-12.1693
▁inner	-12.1694
▁270	-12.1696
▁vir	-12.1697
▁1983	-12.1709
▁1981	-12.1717
▁spur	-12.1717
▁diversifying	-12.1721
▁usof	-12.1722
▁pb	-12.1728
lab	-12.1729
cho	-12.1731
▁ud	-12.1732
▁mango	-12.1734
▁2007.	-12.1737
▁budgeted	-12.1739
▁aiding	-12.1744
▁miss	-12.1753
▁din	-12.1758
.24	-12.1761
apur	-12.1761
financial	-12.177
saving	-12.1771
prone	-12.1771
home	-12.1772
▁filings	-12.1775
anand	-12.1776
▁scaled	-12.1778
april	-12.1779
▁pmjay	-12.1781
pping	-12.1784
▁constable	-12.1787
▁trail	-12.1788
▁sultan	-12.1791
▁applicability	-12.1791
▁initiation	-12.1791
▁nitrogen	-12.1791
▁quarantine	-12.1791
▁rejuvenate	-12.1791
▁riyadh	-12.1791
▁trophies	-12.1791
▁vigour	-12.1791
▁commences	-12.1791
▁province	-12.1791
▁budding	-12.1791
▁hashtag	-12.1791
▁narrow	-12.1791
▁bogus	-12.1792
▁swaminathan	-12.1792
▁matrix	-12.1792
▁awws	-12.1792
▁fabrication	-12.1792
▁multimedia	-12.1793
yal	-12.1794
▁attendant	-12.1794
▁elephants	-12.1795
▁endangered	-12.1795
▁intercepted	-12.1797
▁vulnerabilities	-12.1798
▁syndrome	-12.1805
▁carriage	-12.1806
nl	-12.1807
▁learnt	-12.1809
▁shatabdi	-12.1809
▁sister	-12.1817
▁aardo	-12.182
ml	-12.1823
▁eac	-12.1827
▁bat	-12.183
mir	-12.183
tur	-12.183
▁pvtg	-12.1833
▁nutrients	-12.1833
▁itpo	-12.1837
wadi	-12.1838
!"	-12.184
▁reforming	-12.1841
40,000	-12.1843
▁onboarding	-12.1846
▁ffs	-12.1852
▁distressed	-12.1853
80,000	-12.1854
▁atls	-12.1863
▁globalization	-12.1866
light	-12.1874
▁ais	-12.1876
▁broaden	-12.1877
▁bb	-12.1883
▁installments	-12.1886
ora	-12.1887
▁igi	-12.1888
▁pran	-12.1888
▁1,00,000	-12.1889
▁everyday	-12.1892
special	-12.1895
growing	-12.1897
▁kl	-12.1905
▁bir	-12.1912
king	-12.1913
▁lamp	-12.1915
pd	-12.1916
timated	-12.1916
▁sncpk	-12.1916
▁botswana	-12.1916
▁groundnut	-12.1916
▁incomplete	-12.1916
▁injustice	-12.1916
▁mormugao	-12.1916
▁simply	-12.1916
▁storytelling	-12.1916
▁substantive	-12.1916
▁survekshan	-12.1916
▁2003-04	-12.1916
▁nasscom	-12.1916
▁opined	-12.1916
▁panorama	-12.1916
▁chatbot	-12.1916
▁occurring	-12.1916
▁brigade	-12.1916
▁wellington	-12.1916
▁naveen	-12.1917
tagged	-12.1917
▁sahibganj	-12.1917
▁emanat	-12.1917
▁mjpssr	-12.1917
▁joyous	-12.1917
▁accumulated	-12.1918
▁biomedical	-12.1918
ified	-12.1922
▁endorsed	-12.1922
▁1945	-12.1922
▁realisation	-12.1923
780	-12.1923
third	-12.1925
▁inspires	-12.1929
▁cherished	-12.193
▁2.0.	-12.1932
dam	-12.1933
▁1949	-12.1935
▁jackets	-12.1936
▁magnetic	-12.1937
▁corvette	-12.1942
▁precursor	-12.1943
▁pellet	-12.1943
▁leased	-12.1952
▁swachch	-12.1955
▁expressways	-12.1958
▁singing	-12.1959
▁naresh	-12.196
▁dsf	-12.1964
mos	-12.1965
ier	-12.1967
18,	-12.1969
▁2001.	-12.1971
▁131	-12.1971
▁evms	-12.1971
cg	-12.1974
▁filmmakers	-12.1979
▁sih	-12.1981
wala	-12.1981
nai	-12.1984
6000	-12.1985
▁leveraged	-12.1988
▁propell	-12.1989
▁gcc	-12.1996
▁sarma	-12.1997
▁ratings	-12.2009
▁posting	-12.2016
▁pellets	-12.2016
table	-12.2017
▁nid	-12.2019
▁11,000	-12.2019
▁garments	-12.2024
▁leakages	-12.2026
first	-12.2027
focused	-12.203
20.66	-12.2039
.11.2016	-12.2039
▁stigma	-12.2041
▁kudankulam	-12.2043
▁lunch	-12.2043
▁mascot	-12.2043
▁populace	-12.2043
▁surakshit	-12.2043
▁unnecessary	-12.2043
▁victoria	-12.2043
▁aksmkvdk	-12.2043
▁tricolour	-12.2043
▁craftsmanship	-12.2043
▁parampara	-12.2043
▁sherpa	-12.2043
▁shining	-12.2043
▁preeti	-12.2044
▁confirmation	-12.2044
▁crises	-12.2044
▁janpath	-12.2045
set	-12.2046
▁mohd	-12.2048
bid	-12.205
▁12.5	-12.2051
▁floated	-12.2051
▁torpedo	-12.2052
▁strs	-12.2053
▁rrr	-12.2057
bari	-12.2059
▁agm	-12.2061
▁fosters	-12.2063
inter	-12.2065
▁hotspots	-12.2065
▁implication	-12.2072
▁heard	-12.2074
▁dhamma	-12.2074
▁extensions	-12.2077
▁pul	-12.2088
▁caps	-12.209
▁vishwanath	-12.209
▁motors	-12.209
▁timing	-12.2091
▁burdens	-12.2091
▁produces	-12.2092
▁rely	-12.2098
▁additions	-12.21
▁speciality	-12.2102
▁tin	-12.2108
ren	-12.2111
rang	-12.2112
tested	-12.2114
▁criminals	-12.2115
▁35,000	-12.2122
▁2.1	-12.2125
approved	-12.2126
▁writ	-12.2126
▁khar	-12.2135
▁meerut	-12.2137
bul	-12.2149
▁insat	-12.2151
▁wars	-12.2152
20231	-12.2152
known	-12.2154
notified	-12.2154
minute	-12.2154
ahmedabad	-12.2155
▁dada	-12.2163
▁mit	-12.2165
▁ls	-12.2169
ordination	-12.2169
2006-071	-12.2171
▁arsenic	-12.2171
▁chawla	-12.2171
▁panagariya	-12.2171
▁prahlad	-12.2171
▁dhanoa	-12.2171
▁gauhati	-12.2171
▁tracing	-12.2171
▁mechanised	-12.2171
▁rubber	-12.2171
▁dubey	-12.2171
▁kollam	-12.2171
▁navratna	-12.2171
▁vaishno	-12.2171
▁maharatna	-12.2171
▁niftem	-12.2172
▁ipef	-12.2172
▁clss	-12.2172
▁standby	-12.2173
▁clari	-12.2173
▁nirf	-12.2173
rb	-12.2173
▁courageous	-12.2173
▁dung	-12.2174
▁nsp	-12.2175
▁eat	-12.2177
▁mandal	-12.2181
▁icat	-12.2183
▁sept	-12.2184
▁icps	-12.2185
▁contents	-12.2186
▁script	-12.2188
▁80,000	-12.2194
skilling	-12.2194
▁traveling	-12.2195
▁crystal	-12.2197
▁dak	-12.2198
▁tube	-12.2199
▁2070	-12.2201
▁translated	-12.2201
▁dalit	-12.2204
▁9.5	-12.2206
.84	-12.2207
▁ddg	-12.2207
▁pemmasani	-12.2211
▁eradicat	-12.2214
▁accession	-12.2216
df	-12.2217
keeping	-12.2219
▁transmitt	-12.222
▁isn	-12.2221
▁bhai	-12.2227
hit	-12.223
▁kom	-12.2235
▁deadlines	-12.2244
▁pesticide	-12.2245
tied	-12.2245
▁2.4	-12.2252
ware	-12.2255
▁guarding	-12.2258
▁failures	-12.2264
▁hm	-12.2266
design	-12.2268
bl	-12.2269
▁gu	-12.2271
▁hydrograph	-12.2274
holding	-12.2278
▁1.7	-12.2279
acc	-12.228
german	-12.2284
▁biswa	-12.2285
political	-12.2286
corruption	-12.2286
cancer	-12.2286
mentioned	-12.2286
october	-12.2286
institutional	-12.2287
graphic	-12.2287
▁dumping	-12.2289
▁lad	-12.2289
▁signages	-12.2289
▁errors	-12.229
final	-12.229
asi	-12.2292
▁wrong	-12.2293
▁imbibe	-12.2296
.46	-12.2297
▁kitchens	-12.23
microbial	-12.23
▁allegations	-12.2301
▁aquifer	-12.2301
▁brussels	-12.2301
▁expiry	-12.2301
▁parameswaran	-12.2301
▁struck	-12.2301
▁triveni	-12.2301
▁lohani	-12.2301
▁hudco	-12.2301
▁rotation	-12.2301
▁thrive	-12.2301
▁balyan	-12.2302
▁teus	-12.2302
▁photonic	-12.2302
▁bbnkpkss	-12.2303
▁nhrc	-12.2303
▁kataria	-12.2304
▁seventy	-12.2304
▁varies	-12.2305
▁confine	-12.2306
▁ceca	-12.2308
▁gsl	-12.2309
▁ncsk	-12.2309
▁ksp	-12.231
▁ilr	-12.2311
▁diverted	-12.2312
▁orbiter	-12.2313
▁furnished	-12.2316
▁dhar	-12.2319
fl	-12.2324
▁atm	-12.2327
▁alka	-12.2329
▁deb	-12.233
▁pop	-12.233
▁implant	-12.2332
▁superintendent	-12.2333
▁indication	-12.2333
▁tournaments	-12.2335
enthusiastically	-12.234
▁samvad	-12.2341
▁schooling	-12.2344
2017	-12.2346
▁pmla	-12.2347
▁documenting	-12.2349
▁70,000	-12.2353
▁rang	-12.2355
ida	-12.2358
▁attained	-12.2363
cent	-12.2366
▁adolescents	-12.2366
▁ews	-12.2369
▁repealing	-12.2371
▁npp	-12.238
▁168	-12.2389
▁detecting	-12.2397
▁draws	-12.2397
110	-12.2409
ade	-12.2415
location	-12.2417
standard	-12.2418
▁professors	-12.2419
science	-12.2419
varanasi	-12.242
director	-12.2422
▁regiments	-12.2422
▁stipulate	-12.2426
▁totally	-12.2428
numer	-12.2431
▁jagdish	-12.2432
▁acquaint	-12.2433
▁bhabhor	-12.2433
▁consistency	-12.2433
▁dhawan	-12.2433
▁enshrined	-12.2433
▁immunity	-12.2433
▁sanctuary	-12.2433
▁2005-06	-12.2433
▁infectious	-12.2433
▁rashmi	-12.2433
▁adjudge	-12.2433
▁taiwan	-12.2433
▁adnoc	-12.2433
▁ecgc	-12.2433
▁admirers	-12.2433
▁motorcycle	-12.2433
▁normalcy	-12.2433
▁pratima	-12.2433
▁propagation	-12.2433
▁2009-10	-12.2433
▁baroda	-12.2433
▁lothal	-12.2433
▁elevation	-12.2433
▁communicate	-12.2433
▁birthplace	-12.2433
▁mankind	-12.2434
▁trump	-12.2434
▁deputed	-12.2435
▁something	-12.2435
▁ifsc	-12.2441
▁ddp	-12.2442
▁saints	-12.2442
step	-12.2442
faceted	-12.2443
▁panic	-12.2444
▁commands	-12.2447
aided	-12.2447
comm	-12.2448
institutions	-12.245
▁clinic	-12.2451
▁normally	-12.2453
▁silchar	-12.2453
lor	-12.2454
▁sal	-12.246
▁clarifications	-12.2463
▁mn	-12.2463
▁nests	-12.2464
▁paralympic	-12.2466
▁hardship	-12.2467
350	-12.2468
▁nal	-12.2468
▁dialogues	-12.2468
▁particles	-12.2469
▁wep	-12.247
self	-12.2473
goi	-12.2473
9.4	-12.2475
▁pipelines	-12.2479
▁icd	-12.2479
chan	-12.2482
mad	-12.2482
▁complements	-12.2489
▁cad	-12.2493
avian	-12.2493
▁fir	-12.2497
▁partly	-12.2499
▁preferabl	-12.2499
hw	-12.2499
rai	-12.2502
▁cantonments	-12.2504
▁fabrics	-12.2504
rf	-12.2505
▁antibiotics	-12.2508
▁neuro	-12.2509
▁nand	-12.2524
▁153	-12.2527
▁sw	-12.253
vm	-12.2534
▁nha	-12.2535
wc	-12.2541
▁heli	-12.2543
▁000	-12.2547
▁accomplish	-12.2549
built	-12.2553
bandhu	-12.2554
▁singha	-12.2557
▁2.6	-12.2558
▁thane	-12.2559
makers	-12.256
▁atta	-12.2561
▁relaxations	-12.2563
▁auxiliar	-12.2566
kshitij	-12.2566
▁anomalies	-12.2566
▁calcutta	-12.2566
▁cervical	-12.2566
▁emmanuel	-12.2566
▁gabon	-12.2566
▁handicapped	-12.2566
▁ibrahim	-12.2566
▁magnitude	-12.2566
▁molasses	-12.2566
▁naonampirajib	-12.2566
▁perseverance	-12.2566
▁retention	-12.2566
▁sangrahalaya	-12.2566
▁cerebr	-12.2566
▁hdfc	-12.2566
▁deshmukh	-12.2566
▁extradition	-12.2566
▁immovable	-12.2566
▁confidentiality	-12.2566
▁bastar	-12.2566
▁digitisation	-12.2566
▁interception	-12.2566
▁passionate	-12.2566
▁telecast	-12.2567
▁nirman	-12.2567
▁aligarh	-12.2567
▁dmrc	-12.2567
▁shrestha	-12.2567
▁ysm	-12.2567
▁chairpersonship	-12.2567
▁concor	-12.2568
▁pmgkay	-12.2568
▁dial	-12.2568
▁weightage	-12.2568
locating	-12.2569
▁bodo	-12.2569
▁laborers	-12.257
▁sixty	-12.2571
▁coes	-12.2572
▁kamat	-12.2574
tv	-12.2575
,452	-12.2579
▁priya	-12.2579
▁3-5	-12.258
▁obesity	-12.2581
▁idf	-12.2585
▁sowa	-12.2586
▁geographic	-12.2587
unit	-12.2591
▁dir	-12.2592
db	-12.2592
chal	-12.2593
portal	-12.2594
▁vasudhaiva	-12.2594
▁kiosks	-12.2596
ena	-12.2599
▁excavation	-12.2601
▁flat	-12.2603
1.00	-12.2605
open	-12.2605
▁observer	-12.2607
▁newsletter	-12.2607
.75	-12.2611
marketing	-12.2612
chandra	-12.2615
▁trace	-12.2616
▁pl	-12.262
▁1974	-12.2624
▁wac	-12.2624
je	-12.2624
▁honours	-12.2626
products	-12.2628
ible	-12.2634
▁parcels	-12.2641
sufficient	-12.2642
gp	-12.2642
▁pressing	-12.2652
▁ay	-12.2654
▁7.2	-12.2659
▁280	-12.2661
▁measurements	-12.2661
bang	-12.2663
▁alh	-12.2663
how	-12.2663
▁specialize	-12.2667
▁trustees	-12.2673
ery	-12.2676
▁modeling	-12.2678
shaped	-12.2683
▁procurements	-12.2686
aria	-12.2687
▁hassan	-12.2688
▁benchmarking	-12.2688
availability	-12.269
▁0.1	-12.2692
myanmar	-12.2692
august	-12.2692
tolerance	-12.2692
tial	-12.2695
tam	-12.2695
▁moves	-12.2695
des	-12.2696
rickshaws	-12.2698
▁bacteria	-12.2699
▁differ	-12.2701
▁dispensation	-12.2701
▁excellencies	-12.2701
▁fixtures	-12.2701
▁kabaddi	-12.2701
▁laurels	-12.2701
▁mehrishi	-12.2701
▁participative	-12.2701
▁proximity	-12.2701
▁redundant	-12.2701
▁treasury	-12.2701
▁turmeric	-12.2701
▁oncology	-12.2701
▁efta	-12.2701
▁drastically	-12.2701
▁escalators	-12.2701
▁chetak	-12.2701
▁christopher	-12.2701
▁radius	-12.2701
▁urja	-12.2701
▁permitting	-12.2701
▁nfra	-12.2702
▁sarnath	-12.2702
▁irdai	-12.2702
ard	-12.2702
▁interpol	-12.2702
▁retroactively	-12.2702
▁thai	-12.2704
▁discontinued	-12.2706
▁iwt	-12.2706
▁formalization	-12.2706
▁conceptualized	-12.2706
▁behavioural	-12.2707
▁nothing	-12.2708
▁nir	-12.2709
▁fairness	-12.2709
▁saurashtra	-12.271
▁regimental	-12.2711
▁workmen	-12.2713
-2,	-12.2713
ture	-12.2714
▁narayana	-12.2715
▁seize	-12.2716
▁silicon	-12.2716
▁debates	-12.2717
.07.2016	-12.2719
atar	-12.2719
▁happened	-12.272
▁5050	-12.272
▁aga	-12.2722
▁ineligible	-12.2726
▁poly	-12.2727
▁ici	-12.2731
▁analyzed	-12.2733
▁threaten	-12.2734
▁flyover	-12.2736
▁math	-12.2736
ists	-12.2738
ample	-12.2738
▁obstacles	-12.2739
▁classroom	-12.2739
▁nrlm	-12.274
▁liver	-12.2741
▁fpo	-12.2742
stone	-12.2748
▁builders	-12.2748
▁4500	-12.2753
▁ios	-12.2755
-90	-12.2764
▁dare	-12.2766
mural	-12.2768
books	-12.2771
▁atf	-12.2771
▁runner	-12.2773
hp	-12.2775
▁pip	-12.2778
bas	-12.2781
▁suffer	-12.2787
▁adi	-12.2794
▁piece	-12.2796
▁counterfeit	-12.2802
▁clarify	-12.2803
▁bala	-12.2813
kari	-12.2814
▁berthing	-12.2816
pay	-12.2818
▁projection	-12.282
▁persist	-12.2823
▁1968	-12.2824
him	-12.2827
ganga	-12.2829
critical	-12.2831
▁valor	-12.2832
▁absolute	-12.2835
▁dept	-12.2836
cng	-12.2838
▁gravitational	-12.2838
negotiable	-12.2838
▁accountancy	-12.2838
▁ahidf	-12.2838
▁amphibious	-12.2838
▁avinash	-12.2838
▁colonies	-12.2838
▁description	-12.2838
▁dharohar	-12.2838
▁rectification	-12.2838
▁svamitva	-12.2838
▁triumph	-12.2838
▁hungary	-12.2838
▁kedarnath	-12.2838
▁killing	-12.2838
▁sayeed	-12.2838
▁grave	-12.2838
▁termination	-12.2838
▁iraq	-12.2839
▁austria	-12.2839
▁dpco	-12.2839
▁robert	-12.2839
▁mandays	-12.2839
▁septic	-12.2839
▁ghani	-12.2841
▁migrate	-12.2841
▁login	-12.2842
▁turnout	-12.2842
▁moma	-12.2842
ov	-12.2846
▁homeland	-12.2849
▁adjudication	-12.285
▁cmds	-12.2852
▁prc	-12.2853
▁tranches	-12.2853
▁reformer	-12.2855
▁missed	-12.2857
▁collision	-12.2858
▁belongs	-12.2863
▁bhoomi	-12.2864
▁fluctuations	-12.2864
▁packets	-12.2864
▁et	-12.2864
north	-12.2865
hc	-12.2865
▁eid	-12.2869
▁commuters	-12.2873
▁eil	-12.2874
▁illustrate	-12.2875
▁suicide	-12.2876
▁iiser	-12.2879
▁locker	-12.2879
▁garud	-12.2879
rence	-12.2881
▁ndps	-12.2887
▁principals	-12.2888
▁basmati	-12.2888
▁agreeing	-12.289
▁prayer	-12.2891
▁330	-12.2898
▁chairpersons	-12.29
▁18,000	-12.2902
▁drain	-12.2906
aji	-12.2906
▁dic	-12.2911
.95	-12.2913
connected	-12.2915
▁anup	-12.2917
insurgency	-12.2923
fit	-12.2924
▁measured	-12.2924
▁cst	-12.2932
fo	-12.2935
▁therein	-12.294
▁violat	-12.2945
▁biswas	-12.2945
▁epic	-12.2945
750	-12.2948
▁addiction	-12.2948
▁antarctic	-12.295
.03.2016	-12.2952
▁mns	-12.2955
▁ifr	-12.2957
▁qco	-12.2959
▁reject	-12.2959
▁digit	-12.2966
3.5	-12.2967
surface	-12.297
▁202	-12.2971
▁cove	-12.2971
▁resume	-12.2971
residence	-12.2971
aadhaar	-12.2972
▁fence	-12.2976
▁nmsa	-12.2977
▁astronaut	-12.2977
▁carnatic	-12.2977
▁dargah	-12.2977
▁gaganyaan	-12.2977
▁jaguar	-12.2977
▁morarji	-12.2977
▁paramparagat	-12.2977
▁perceived	-12.2977
▁prudent	-12.2977
▁sudhir	-12.2977
▁pedestrian	-12.2977
▁shopping	-12.2977
▁polymetallic	-12.2977
▁kamarajar	-12.2977
▁certify	-12.2977
▁trilateral	-12.2977
▁reproductive	-12.2977
▁justification	-12.2978
▁uttam	-12.2978
▁bioeconomy	-12.2978
▁pavement	-12.2978
oda	-12.2978
▁imagery	-12.2979
[...]
